{
  "version": "1.0",
  "truncation": null,
  "padding": null,
  "added_tokens": [
    {
      "id": 0,
      "content": "<|pad|>",
      "single_word": false,
      "lstrip": false,
      "rstrip": false,
      "normalized": false,
      "special": true
    },
    {
      "id": 1,
      "content": "<|bos|>",
      "single_word": false,
      "lstrip": false,
      "rstrip": false,
      "normalized": false,
      "special": true
    },
    {
      "id": 2,
      "content": "<|eos|>",
      "single_word": false,
      "lstrip": false,
      "rstrip": false,
      "normalized": false,
      "special": true
    },
    {
      "id": 3,
      "content": "<|unk|>",
      "single_word": false,
      "lstrip": false,
      "rstrip": false,
      "normalized": false,
      "special": true
    },
    {
      "id": 4,
      "content": "<|im_start|>",
      "single_word": false,
      "lstrip": false,
      "rstrip": false,
      "normalized": false,
      "special": true
    },
    {
      "id": 5,
      "content": "<|im_end|>",
      "single_word": false,
      "lstrip": false,
      "rstrip": false,
      "normalized": false,
      "special": true
    },
    {
      "id": 6,
      "content": "<|image|>",
      "single_word": false,
      "lstrip": false,
      "rstrip": false,
      "normalized": false,
      "special": true
    },
    {
      "id": 7,
      "content": "<|/image|>",
      "single_word": false,
      "lstrip": false,
      "rstrip": false,
      "normalized": false,
      "special": true
    },
    {
      "id": 8,
      "content": "<|audio|>",
      "single_word": false,
      "lstrip": false,
      "rstrip": false,
      "normalized": false,
      "special": true
    },
    {
      "id": 9,
      "content": "<|/audio|>",
      "single_word": false,
      "lstrip": false,
      "rstrip": false,
      "normalized": false,
      "special": true
    },
    {
      "id": 10,
      "content": "<|user_audio|>",
      "single_word": false,
      "lstrip": false,
      "rstrip": false,
      "normalized": false,
      "special": true
    },
    {
      "id": 11,
      "content": "<|agent_audio|>",
      "single_word": false,
      "lstrip": false,
      "rstrip": false,
      "normalized": false,
      "special": true
    },
    {
      "id": 12,
      "content": "<|video|>",
      "single_word": false,
      "lstrip": false,
      "rstrip": false,
      "normalized": false,
      "special": true
    },
    {
      "id": 13,
      "content": "<|/video|>",
      "single_word": false,
      "lstrip": false,
      "rstrip": false,
      "normalized": false,
      "special": true
    },
    {
      "id": 14,
      "content": "<|3d|>",
      "single_word": false,
      "lstrip": false,
      "rstrip": false,
      "normalized": false,
      "special": true
    },
    {
      "id": 15,
      "content": "<|/3d|>",
      "single_word": false,
      "lstrip": false,
      "rstrip": false,
      "normalized": false,
      "special": true
    },
    {
      "id": 16,
      "content": "<|reserved_0|>",
      "single_word": false,
      "lstrip": false,
      "rstrip": false,
      "normalized": false,
      "special": true
    },
    {
      "id": 17,
      "content": "<|reserved_1|>",
      "single_word": false,
      "lstrip": false,
      "rstrip": false,
      "normalized": false,
      "special": true
    },
    {
      "id": 18,
      "content": "<|reserved_2|>",
      "single_word": false,
      "lstrip": false,
      "rstrip": false,
      "normalized": false,
      "special": true
    },
    {
      "id": 19,
      "content": "<|reserved_3|>",
      "single_word": false,
      "lstrip": false,
      "rstrip": false,
      "normalized": false,
      "special": true
    },
    {
      "id": 20,
      "content": "<|reserved_4|>",
      "single_word": false,
      "lstrip": false,
      "rstrip": false,
      "normalized": false,
      "special": true
    },
    {
      "id": 21,
      "content": "<|reserved_5|>",
      "single_word": false,
      "lstrip": false,
      "rstrip": false,
      "normalized": false,
      "special": true
    },
    {
      "id": 22,
      "content": "<|reserved_6|>",
      "single_word": false,
      "lstrip": false,
      "rstrip": false,
      "normalized": false,
      "special": true
    },
    {
      "id": 23,
      "content": "<|reserved_7|>",
      "single_word": false,
      "lstrip": false,
      "rstrip": false,
      "normalized": false,
      "special": true
    }
  ],
  "normalizer": {
    "type": "NFC"
  },
  "pre_tokenizer": {
    "type": "Sequence",
    "pretokenizers": [
      {
        "type": "Split",
        "pattern": {
          "String": "'s|'t|'re|'ve|'m|'ll|'d"
        },
        "behavior": "Isolated",
        "invert": false
      },
      {
        "type": "Digits",
        "individual_digits": true
      },
      {
        "type": "ByteLevel",
        "add_prefix_space": false,
        "trim_offsets": true,
        "use_regex": true
      }
    ]
  },
  "post_processor": null,
  "decoder": {
    "type": "ByteLevel",
    "add_prefix_space": true,
    "trim_offsets": true,
    "use_regex": true
  },
  "model": {
    "type": "BPE",
    "dropout": null,
    "unk_token": "<|unk|>",
    "continuing_subword_prefix": null,
    "end_of_word_suffix": null,
    "fuse_unk": false,
    "byte_fallback": false,
    "ignore_merges": false,
    "vocab": {
      "<|pad|>": 0,
      "<|bos|>": 1,
      "<|eos|>": 2,
      "<|unk|>": 3,
      "<|im_start|>": 4,
      "<|im_end|>": 5,
      "<|image|>": 6,
      "<|/image|>": 7,
      "<|audio|>": 8,
      "<|/audio|>": 9,
      "<|user_audio|>": 10,
      "<|agent_audio|>": 11,
      "<|video|>": 12,
      "<|/video|>": 13,
      "<|3d|>": 14,
      "<|/3d|>": 15,
      "<|reserved_0|>": 16,
      "<|reserved_1|>": 17,
      "<|reserved_2|>": 18,
      "<|reserved_3|>": 19,
      "<|reserved_4|>": 20,
      "<|reserved_5|>": 21,
      "<|reserved_6|>": 22,
      "<|reserved_7|>": 23,
      "!": 24,
      "\"": 25,
      "#": 26,
      "$": 27,
      "%": 28,
      "&": 29,
      "'": 30,
      "(": 31,
      ")": 32,
      "*": 33,
      "+": 34,
      ",": 35,
      "-": 36,
      ".": 37,
      "/": 38,
      "0": 39,
      "1": 40,
      "2": 41,
      "3": 42,
      "4": 43,
      "5": 44,
      "6": 45,
      "7": 46,
      "8": 47,
      "9": 48,
      ":": 49,
      ";": 50,
      "<": 51,
      "=": 52,
      ">": 53,
      "?": 54,
      "@": 55,
      "A": 56,
      "B": 57,
      "C": 58,
      "D": 59,
      "E": 60,
      "F": 61,
      "G": 62,
      "H": 63,
      "I": 64,
      "J": 65,
      "K": 66,
      "L": 67,
      "M": 68,
      "N": 69,
      "O": 70,
      "P": 71,
      "Q": 72,
      "R": 73,
      "S": 74,
      "T": 75,
      "U": 76,
      "V": 77,
      "W": 78,
      "X": 79,
      "Y": 80,
      "Z": 81,
      "[": 82,
      "\\": 83,
      "]": 84,
      "^": 85,
      "_": 86,
      "`": 87,
      "a": 88,
      "b": 89,
      "c": 90,
      "d": 91,
      "e": 92,
      "f": 93,
      "g": 94,
      "h": 95,
      "i": 96,
      "j": 97,
      "k": 98,
      "l": 99,
      "m": 100,
      "n": 101,
      "o": 102,
      "p": 103,
      "q": 104,
      "r": 105,
      "s": 106,
      "t": 107,
      "u": 108,
      "v": 109,
      "w": 110,
      "x": 111,
      "y": 112,
      "z": 113,
      "{": 114,
      "|": 115,
      "}": 116,
      "~": 117,
      "¡": 118,
      "¢": 119,
      "£": 120,
      "¤": 121,
      "¥": 122,
      "¦": 123,
      "§": 124,
      "¨": 125,
      "©": 126,
      "ª": 127,
      "«": 128,
      "¬": 129,
      "®": 130,
      "¯": 131,
      "°": 132,
      "±": 133,
      "²": 134,
      "³": 135,
      "´": 136,
      "µ": 137,
      "¶": 138,
      "·": 139,
      "¸": 140,
      "¹": 141,
      "º": 142,
      "»": 143,
      "¼": 144,
      "½": 145,
      "¾": 146,
      "¿": 147,
      "À": 148,
      "Á": 149,
      "Â": 150,
      "Ã": 151,
      "Ä": 152,
      "Å": 153,
      "Æ": 154,
      "Ç": 155,
      "È": 156,
      "É": 157,
      "Ê": 158,
      "Ë": 159,
      "Ì": 160,
      "Í": 161,
      "Î": 162,
      "Ï": 163,
      "Ð": 164,
      "Ñ": 165,
      "Ò": 166,
      "Ó": 167,
      "Ô": 168,
      "Õ": 169,
      "Ö": 170,
      "×": 171,
      "Ø": 172,
      "Ù": 173,
      "Ú": 174,
      "Û": 175,
      "Ü": 176,
      "Ý": 177,
      "Þ": 178,
      "ß": 179,
      "à": 180,
      "á": 181,
      "â": 182,
      "ã": 183,
      "ä": 184,
      "å": 185,
      "æ": 186,
      "ç": 187,
      "è": 188,
      "é": 189,
      "ê": 190,
      "ë": 191,
      "ì": 192,
      "í": 193,
      "î": 194,
      "ï": 195,
      "ð": 196,
      "ñ": 197,
      "ò": 198,
      "ó": 199,
      "ô": 200,
      "õ": 201,
      "ö": 202,
      "÷": 203,
      "ø": 204,
      "ù": 205,
      "ú": 206,
      "û": 207,
      "ü": 208,
      "ý": 209,
      "þ": 210,
      "ÿ": 211,
      "Ā": 212,
      "ā": 213,
      "Ă": 214,
      "ă": 215,
      "Ą": 216,
      "ą": 217,
      "Ć": 218,
      "ć": 219,
      "Ĉ": 220,
      "ĉ": 221,
      "Ċ": 222,
      "ċ": 223,
      "Č": 224,
      "č": 225,
      "Ď": 226,
      "ď": 227,
      "Đ": 228,
      "đ": 229,
      "Ē": 230,
      "ē": 231,
      "Ĕ": 232,
      "ĕ": 233,
      "Ė": 234,
      "ė": 235,
      "Ę": 236,
      "ę": 237,
      "Ě": 238,
      "ě": 239,
      "Ĝ": 240,
      "ĝ": 241,
      "Ğ": 242,
      "ğ": 243,
      "Ġ": 244,
      "ġ": 245,
      "Ģ": 246,
      "ģ": 247,
      "Ĥ": 248,
      "ĥ": 249,
      "Ħ": 250,
      "ħ": 251,
      "Ĩ": 252,
      "ĩ": 253,
      "Ī": 254,
      "ī": 255,
      "Ĭ": 256,
      "ĭ": 257,
      "Į": 258,
      "į": 259,
      "İ": 260,
      "ı": 261,
      "Ĳ": 262,
      "ĳ": 263,
      "Ĵ": 264,
      "ĵ": 265,
      "Ķ": 266,
      "ķ": 267,
      "ĸ": 268,
      "Ĺ": 269,
      "ĺ": 270,
      "Ļ": 271,
      "ļ": 272,
      "Ľ": 273,
      "ľ": 274,
      "Ŀ": 275,
      "ŀ": 276,
      "Ł": 277,
      "ł": 278,
      "Ń": 279,
      "ĠĠ": 280,
      "ĠĠĠĠ": 281,
      "Ġt": 282,
      "Ġa": 283,
      "in": 284,
      "he": 285,
      "re": 286,
      "on": 287,
      "er": 288,
      "Ġs": 289,
      "en": 290,
      "at": 291,
      "or": 292,
      "Ġthe": 293,
      "es": 294,
      "Ġc": 295,
      "ĠĠĠĠĠĠĠĠ": 296,
      "an": 297,
      "is": 298,
      "Ġd": 299,
      "Ġo": 300,
      "Ġp": 301,
      "al": 302,
      "it": 303,
      "Ġf": 304,
      "ar": 305,
      "ï¼": 306,
      "Ġw": 307,
      "el": 308,
      "ed": 309,
      "Ġb": 310,
      "ing": 311,
      "ic": 312,
      "Ġm": 313,
      "Ġan": 314,
      "ro": 315,
      "ion": 316,
      "Ġin": 317,
      "as": 318,
      "Ġof": 319,
      "ou": 320,
      "le": 321,
      "ä¸": 322,
      "Ġto": 323,
      "ãĢ": 324,
      "Ġand": 325,
      "ï¼Į": 326,
      "ent": 327,
      "Ġl": 328,
      "ct": 329,
      "Ġre": 330,
      "et": 331,
      "st": 332,
      "il": 333,
      "Ġh": 334,
      "Ġn": 335,
      "im": 336,
      "om": 337,
      "Ġth": 338,
      "Ġde": 339,
      "çļ": 340,
      "ĠT": 341,
      "Ġe": 342,
      "am": 343,
      "çļĦ": 344,
      "id": 345,
      "se": 346,
      "ut": 347,
      "ur": 348,
      "un": 349,
      "ad": 350,
      "äº": 351,
      "ĠA": 352,
      "ol": 353,
      "Ġ=": 354,
      "Ġis": 355,
      "âĢ": 356,
      "ac": 357,
      "ãĢĤ": 358,
      "æľ": 359,
      "Ġg": 360,
      "ot": 361,
      "åħ": 362,
      "ve": 363,
      "ig": 364,
      "Ġy": 365,
      "ĠS": 366,
      "od": 367,
      "ation": 368,
      "åľ": 369,
      "Ġfor": 370,
      "os": 371,
      "ĠC": 372,
      "ĠI": 373,
      "ul": 374,
      "if": 375,
      "åı": 376,
      "elf": 377,
      "ce": 378,
      "ow": 379,
      "est": 380,
      "us": 381,
      "Ġ\"": 382,
      "ver": 383,
      "Ġbe": 384,
      "ort": 385,
      "å¹": 386,
      "å¤": 387,
      "ly": 388,
      "Ġ(": 389,
      "Ġst": 390,
      "ir": 391,
      "qu": 392,
      "Ġ'": 393,
      "ch": 394,
      "Ġcon": 395,
      "ä»": 396,
      "Ġ#": 397,
      "ay": 398,
      "ag": 399,
      "ist": 400,
      "Ġon": 401,
      "##": 402,
      "Ġthat": 403,
      "ab": 404,
      "Ġas": 405,
      "æĸ": 406,
      "ith": 407,
      "um": 408,
      "rom": 409,
      "ate": 410,
      "ĠThe": 411,
      "ĠP": 412,
      "ect": 413,
      "--": 414,
      "em": 415,
      "å¹´": 416,
      "Ġpro": 417,
      "op": 418,
      "Ġim": 419,
      "port": 420,
      "å®": 421,
      "ĠĠĠĠĠĠĠĠĠĠĠĠ": 422,
      "ra": 423,
      "ĠM": 424,
      "ri": 425,
      "Ġyou": 426,
      "Ġor": 427,
      "åĪ": 428,
      "res": 429,
      "Ġal": 430,
      "Ġwith": 431,
      "her": 432,
      "ter": 433,
      "Ġex": 434,
      "åĲ": 435,
      "Ġen": 436,
      "Ġare": 437,
      "Ġv": 438,
      "Ġit": 439,
      "ãĢģ": 440,
      "Ġfrom": 441,
      "çĶ": 442,
      "åŃ": 443,
      "åį": 444,
      "oc": 445,
      "ä½": 446,
      "ess": 447,
      "ĠE": 448,
      "Ġcom": 449,
      "ĠF": 450,
      "ers": 451,
      "pe": 452,
      "Ġself": 453,
      "ĠL": 454,
      "and": 455,
      "ĠB": 456,
      "æĺ": 457,
      "å°": 458,
      "up": 459,
      "th": 460,
      "):": 461,
      "ame": 462,
      "ex": 463,
      "åĽ": 464,
      "Ġun": 465,
      "ĠW": 466,
      "Ġwh": 467,
      "pt": 468,
      "pl": 469,
      "ke": 470,
      "Ġ-": 471,
      "ĠD": 472,
      "ĠN": 473,
      "ĠH": 474,
      "nt": 475,
      "ore": 476,
      "ass": 477,
      "ill": 478,
      "ant": 479,
      "ĠR": 480,
      "Ġhe": 481,
      "ĠĠĠĠĠĠĠĠĠĠĠĠĠĠĠĠ": 482,
      "æĹ": 483,
      "å¾": 484,
      "ment": 485,
      "',": 486,
      "ä¹": 487,
      "Ġr": 488,
      "ue": 489,
      "Ġimport": 490,
      "iv": 491,
      "Ġse": 492,
      "ä¸Ń": 493,
      "ht": 494,
      "æĪ": 495,
      "Ġel": 496,
      "ere": 497,
      "ĠG": 498,
      "ain": 499,
      "end": 500,
      "og": 501,
      "Ġdef": 502,
      "Ġcan": 503,
      "ap": 504,
      "ity": 505,
      "ud": 506,
      "åľ¨": 507,
      "ä¸Ģ": 508,
      "ci": 509,
      "å¸": 510,
      "art": 511,
      "ld": 512,
      "Ġsu": 513,
      "self": 514,
      "Ġby": 515,
      "ï¼Ī": 516,
      "ï¼ī": 517,
      "Ġnot": 518,
      "all": 519,
      "ĠO": 520,
      "Ġat": 521,
      "Ġch": 522,
      "Ġla": 523,
      "ure": 524,
      "ies": 525,
      "éĢ": 526,
      "Ġne": 527,
      "ult": 528,
      "ive": 529,
      "âĢĻ": 530,
      "ave": 531,
      "####": 532,
      "age": 533,
      "äºº": 534,
      "ang": 535,
      "==": 536,
      "iz": 537,
      "ions": 538,
      "æĺ¯": 539,
      "åĮ": 540,
      "Ġle": 541,
      "å¤§": 542,
      "åĬ": 543,
      "ĠĠĠĠĠ": 544,
      "our": 545,
      "Ġus": 546,
      "Ġif": 547,
      "ert": 548,
      "\"\"": 549,
      "ĠU": 550,
      "cl": 551,
      "Ã³": 552,
      "æŃ": 553,
      "ine": 554,
      "ight": 555,
      "nd": 556,
      "__": 557,
      "urn": 558,
      "çī": 559,
      "ost": 560,
      "Ġcl": 561,
      "å·": 562,
      "ext": 563,
      "è¿": 564,
      "è¡": 565,
      "one": 566,
      "ĠâĢ": 567,
      "Ġthis": 568,
      "ile": 569,
      "éĩ": 570,
      "orm": 571,
      "æķ": 572,
      "out": 573,
      "æĶ": 574,
      "Ġsh": 575,
      "),": 576,
      "ib": 577,
      "are": 578,
      "æľī": 579,
      "----": 580,
      "æ°": 581,
      "éģ": 582,
      "Ġqu": 583,
      "Ġhave": 584,
      "åĴ": 585,
      "act": 586,
      "con": 587,
      "èĢ": 588,
      "Ġwas": 589,
      "use": 590,
      "Ġwe": 591,
      "ical": 592,
      "åº": 593,
      "åĴĮ": 594,
      "ial": 595,
      "å±": 596,
      "çĤ": 597,
      "Ġab": 598,
      "Ġtr": 599,
      "ip": 600,
      "()": 601,
      "åĽ½": 602,
      "able": 603,
      "ust": 604,
      "ase": 605,
      "ĠIn": 606,
      "Ġres": 607,
      "âĢĿ": 608,
      "éĻ": 609,
      "æĿ": 610,
      "èĩ": 611,
      "Ġcont": 612,
      "arg": 613,
      "ia": 614,
      "ord": 615,
      "ack": 616,
      "ated": 617,
      "ĠTh": 618,
      "éĥ": 619,
      "Ġpl": 620,
      "æī": 621,
      "åľĭ": 622,
      "ff": 623,
      "ans": 624,
      "ug": 625,
      "å¼": 626,
      "ub": 627,
      "ell": 628,
      "ould": 629,
      "com": 630,
      "ast": 631,
      "Ġret": 632,
      "ĠĠĠ": 633,
      "\",": 634,
      "ä¼": 635,
      "Ġint": 636,
      "int": 637,
      "ard": 638,
      "ç»": 639,
      "ple": 640,
      "ich": 641,
      "æ³": 642,
      "ind": 643,
      "ire": 644,
      "ata": 645,
      "ath": 646,
      "ther": 647,
      "ï¼ļ": 648,
      "ob": 649,
      "ork": 650,
      "ents": 651,
      "åĩ": 652,
      "ime": 653,
      "çĽ": 654,
      "Ġad": 655,
      "per": 656,
      "name": 657,
      "ide": 658,
      "ç§": 659,
      "ew": 660,
      "è®": 661,
      "Ġyour": 662,
      "ens": 663,
      "cc": 664,
      "Ġk": 665,
      "ÃŃ": 666,
      "du": 667,
      "ft": 668,
      "çĤº": 669,
      "ä»¥": 670,
      "':": 671,
      "der": 672,
      "éĽ": 673,
      "æĹ¥": 674,
      "ction": 675,
      "Ġreturn": 676,
      "æľĪ": 677,
      "ok": 678,
      "\":": 679,
      "å¯": 680,
      "ĠJ": 681,
      "ak": 682,
      "åĨ": 683,
      "Ġwill": 684,
      "ance": 685,
      "Ġdis": 686,
      "Ġwhe": 687,
      "form": 688,
      "æ²": 689,
      "Ġall": 690,
      "Ġar": 691,
      "Ġ<": 692,
      "ep": 693,
      "Ġ[": 694,
      "pro": 695,
      "('": 696,
      "ject": 697,
      "ç¾": 698,
      "Ġtheir": 699,
      "ice": 700,
      "èĪ": 701,
      "ong": 702,
      "çİ": 703,
      "ary": 704,
      "æĻ": 705,
      "ual": 706,
      "Ġhas": 707,
      "Ġper": 708,
      "ild": 709,
      "ations": 710,
      "ace": 711,
      "ach": 712,
      "Ġ\"\"\"": 713,
      "ail": 714,
      "av": 715,
      "åľ°": 716,
      "ount": 717,
      "get": 718,
      "ä¸º": 719,
      "æĪĲ": 720,
      "Ġwhich": 721,
      "ear": 722,
      "å¥": 723,
      "Ġmore": 724,
      "Ġap": 725,
      "Ġj": 726,
      "å½": 727,
      "ode": 728,
      "ome": 729,
      "so": 730,
      "vel": 731,
      "è¯": 732,
      "ign": 733,
      "Ġ{": 734,
      "NT": 735,
      "åŁ": 736,
      "äºĨ": 737,
      "ry": 738,
      "rit": 739,
      "vers": 740,
      "åī": 741,
      "æµ": 742,
      "ood": 743,
      "'s": 744,
      "Ã³n": 745,
      "ous": 746,
      "åİ": 747,
      "ater": 748,
      "Ġme": 749,
      "ype": 750,
      "ER": 751,
      "Ġdo": 752,
      ").": 753,
      "ç«": 754,
      "ä¸į": 755,
      "æł": 756,
      "Ġthey": 757,
      "ress": 758,
      "rib": 759,
      "æĭ": 760,
      "Ġpr": 761,
      "Ġcomp": 762,
      "ake": 763,
      "è¦": 764,
      "ory": 765,
      "Ã¡": 766,
      "Ġsy": 767,
      "ĠThis": 768,
      "Ġother": 769,
      "ĠĠĠĠĠĠĠĠĠ": 770,
      "')": 771,
      "ä¹ĭ": 772,
      "çĲ": 773,
      "ence": 774,
      "çĶŁ": 775,
      "Ġout": 776,
      "Ġdes": 777,
      "ä¾": 778,
      "ict": 779,
      "Ġpre": 780,
      "ose": 781,
      "Ġbut": 782,
      "und": 783,
      "########": 784,
      "ç´": 785,
      "ĠV": 786,
      "éĿ": 787,
      "Ġso": 788,
      "åĢ": 789,
      "ä¸Ĭ": 790,
      "====": 791,
      "ener": 792,
      "æĢ": 793,
      "ef": 794,
      "çķ": 795,
      "æĽ": 796,
      "Ġman": 797,
      "iel": 798,
      "åĵ": 799,
      "ors": 800,
      "åĩº": 801,
      "ces": 802,
      "Ġmod": 803,
      "ç¨": 804,
      "io": 805,
      "æ´": 806,
      "str": 807,
      "Ġdel": 808,
      "åŃ¦": 809,
      "Ġpart": 810,
      "è¨": 811,
      "å®¶": 812,
      "ĠSt": 813,
      "ook": 814,
      "ä¸»": 815,
      "å»": 816,
      "ĠâĢľ": 817,
      "cre": 818,
      "ree": 819,
      "erv": 820,
      "ield": 821,
      "ĠY": 822,
      "ST": 823,
      "æĸ¯": 824,
      "Ġone": 825,
      "Ã©": 826,
      "çĻ": 827,
      "ãĢĬ": 828,
      "ãĢĭ": 829,
      "éĥ¨": 830,
      "Ġev": 831,
      "ber": 832,
      "Ġuse": 833,
      "æ¸": 834,
      "ition": 835,
      "ound": 836,
      "Ġro": 837,
      "Ġalso": 838,
      "cept": 839,
      "Ġtest": 840,
      "**": 841,
      "æİ": 842,
      "çº": 843,
      "çĶ¨": 844,
      "é«": 845,
      "ĠK": 846,
      "ä¿": 847,
      "Ġclass": 848,
      "Ġque": 849,
      "æĸĩ": 850,
      "low": 851,
      "SS": 852,
      "ific": 853,
      "ä½ľ": 854,
      "è§": 855,
      "ç¬": 856,
      "åŃ¸": 857,
      "ings": 858,
      "æ³ķ": 859,
      "æ°ĳ": 860,
      "è¡Į": 861,
      "é¦": 862,
      "åħ¶": 863,
      "Ġes": 864,
      "Ġmay": 865,
      "Ġstr": 866,
      "reat": 867,
      "ense": 868,
      "åĪĨ": 869,
      "Ġag": 870,
      "ĠIt": 871,
      "æ¯": 872,
      "Ġte": 873,
      "ock": 874,
      "ä»ĸ": 875,
      "åĭ": 876,
      "åĳ": 877,
      "Ġsp": 878,
      "çŃ": 879,
      "Ġup": 880,
      "Ġcomm": 881,
      "ient": 882,
      "arn": 883,
      "lic": 884,
      "Ġspe": 885,
      "ely": 886,
      "ä¸ĸ": 887,
      "Ġob": 888,
      "ite": 889,
      "ms": 890,
      "æĶ¿": 891,
      "æ±": 892,
      "Ġ+": 893,
      "ll": 894,
      "lp": 895,
      "Ġlos": 896,
      "ON": 897,
      "own": 898,
      "ANT": 899,
      "Ġabout": 900,
      "Ġcol": 901,
      "--------": 902,
      "ph": 903,
      "Â·": 904,
      "æŀ": 905,
      "èĥ": 906,
      "gr": 907,
      "èª": 908,
      "iff": 909,
      "']": 910,
      "very": 911,
      "put": 912,
      "çµ": 913,
      "è¥": 914,
      "åŃĲ": 915,
      "åħ¬": 916,
      "Ġtime": 917,
      "cess": 918,
      "Ġpar": 919,
      "key": 920,
      "Ġwork": 921,
      "éĺ": 922,
      "Ġstud": 923,
      "ie": 924,
      "))": 925,
      "eth": 926,
      "ck": 927,
      "éķ": 928,
      "éĸ": 929,
      "èµ": 930,
      "alue": 931,
      "æĸ¼": 932,
      "Ġass": 933,
      "å¿": 934,
      "èģ": 935,
      "ates": 936,
      "ish": 937,
      "Ġind": 938,
      "ç¬¬": 939,
      "Ġwere": 940,
      "we": 941,
      "Ġpe": 942,
      "Ġget": 943,
      "è¥¿": 944,
      "ĠCh": 945,
      "å§": 946,
      "Ġunder": 947,
      "clud": 948,
      "æĬ": 949,
      "tern": 950,
      "ren": 951,
      "Ġem": 952,
      "ays": 953,
      "æ¬": 954,
      "olog": 955,
      "ror": 956,
      "ally": 957,
      "Ġnew": 958,
      "ari": 959,
      "èĢĮ": 960,
      "è¢": 961,
      "æĸ¹": 962,
      "lo": 963,
      "che": 964,
      "éĹ": 965,
      "ool": 966,
      "çĪ": 967,
      "Ġdata": 968,
      "åĪ°": 969,
      "oft": 970,
      "(\"": 971,
      "Ġli": 972,
      "iÃ³n": 973,
      "è¾": 974,
      "åĲį": 975,
      "Ġest": 976,
      "Ġhelp": 977,
      "Ġ%": 978,
      "Ġexp": 979,
      "Ġno": 980,
      "tr": 981,
      "éļ": 982,
      "æľ¬": 983,
      "._": 984,
      "Ġgro": 985,
      "åįĹ": 986,
      "å¤ļ": 987,
      "ribut": 988,
      "Ġwhen": 989,
      "ĠUn": 990,
      "ec": 991,
      "Ġthan": 992,
      "les": 993,
      "åıĬ": 994,
      "Ġneed": 995,
      "åı¯": 996,
      "ize": 997,
      "ove": 998,
      "ä»£": 999,
      "Ġact": 1000,
      "Ġsup": 1001,
      "åĲĮ": 1002,
      "Ġwho": 1003,
      "path": 1004,
      "ise": 1005,
      "par": 1006,
      "Ġdiff": 1007,
      "Ġprov": 1008,
      "ric": 1009,
      "Ġused": 1010,
      "æĻĤ": 1011,
      "Ġnum": 1012,
      "Ġyear": 1013,
      "Ġsome": 1014,
      "Ġ_": 1015,
      "èĭ": 1016,
      "ian": 1017,
      "âĢľ": 1018,
      "äºİ": 1019,
      "èĩª": 1020,
      "Ġbl": 1021,
      "Ġset": 1022,
      "irst": 1023,
      "Ġinto": 1024,
      "ys": 1025,
      "Ġgo": 1026,
      "çĲĨ": 1027,
      "stem": 1028,
      "Ġform": 1029,
      "Ġcons": 1030,
      "pon": 1031,
      "ink": 1032,
      "çī©": 1033,
      "è¢«": 1034,
      "Ġany": 1035,
      "åĮĹ": 1036,
      "Ġrequ": 1037,
      "ãĢĮ": 1038,
      "Ġhow": 1039,
      "ãĢį": 1040,
      "ople": 1041,
      "âĢĶ": 1042,
      "Ġover": 1043,
      "ax": 1044,
      "rue": 1045,
      "Ġits": 1046,
      "py": 1047,
      "ç«ĭ": 1048,
      "Ġbet": 1049,
      "red": 1050,
      "å¸Ĥ": 1051,
      "icense": 1052,
      "Ġthem": 1053,
      "mod": 1054,
      "te": 1055,
      "Ġadd": 1056,
      "ible": 1057,
      "Ġkn": 1058,
      "ange": 1059,
      "ge": 1060,
      "ied": 1061,
      "æľĥ": 1062,
      "Ġfe": 1063,
      "çĶ±": 1064,
      "ç©": 1065,
      "æĮ": 1066,
      "Ġthere": 1067,
      "å¾Į": 1068,
      "ado": 1069,
      "ov": 1070,
      "test": 1071,
      "Ġ|": 1072,
      "ĠEn": 1073,
      "['": 1074,
      "IST": 1075,
      "els": 1076,
      "Ġbeen": 1077,
      "iss": 1078,
      "ption": 1079,
      "ĠĠĠĠĠĠ": 1080,
      "é¡": 1081,
      "Ġinclud": 1082,
      "ause": 1083,
      "çŃī": 1084,
      "Ġrel": 1085,
      "ix": 1086,
      "é»": 1087,
      "Ġacc": 1088,
      "ugh": 1089,
      "IT": 1090,
      "ç¾İ": 1091,
      "ick": 1092,
      "æľĢ": 1093,
      "Ġĉ": 1094,
      "\")": 1095,
      "ĠĠĠĠĠĠĠĠĠĠĠĠĠĠĠĠĠĠĠĠ": 1096,
      "Ġthese": 1097,
      "çī¹": 1098,
      "Ġreg": 1099,
      "ark": 1100,
      "ä¸ª": 1101,
      "Ġam": 1102,
      "Ġhis": 1103,
      "ĠASS": 1104,
      "é«ĺ": 1105,
      "åĮĸ": 1106,
      "Ġdist": 1107,
      "erm": 1108,
      "set": 1109,
      "ISTANT": 1110,
      "ä¸ĭ": 1111,
      "æīĢ": 1112,
      "ĠASSISTANT": 1113,
      "Ġsuch": 1114,
      "app": 1115,
      "ä¹Ł": 1116,
      "ities": 1117,
      "als": 1118,
      "çİĭ": 1119,
      "ular": 1120,
      "æĸ°": 1121,
      "cri": 1122,
      "igh": 1123,
      "rain": 1124,
      "Ġprodu": 1125,
      "..": 1126,
      "ç½": 1127,
      "Ġname": 1128,
      "AR": 1129,
      "Ġtw": 1130,
      "Ġrec": 1131,
      "Ġpeople": 1132,
      "Ġsub": 1133,
      "ä¸ī": 1134,
      "èĪĩ": 1135,
      "çľ": 1136,
      "ç¶": 1137,
      "ule": 1138,
      "|>": 1139,
      "Ġ<|": 1140,
      "endoft": 1141,
      "endoftext": 1142,
      "è»": 1143,
      "ä½į": 1144,
      "æ¼": 1145,
      "å®ļ": 1146,
      "Ġour": 1147,
      "alth": 1148,
      "oug": 1149,
      "ating": 1150,
      "è¦ģ": 1151,
      "velop": 1152,
      "SE": 1153,
      "æķĻ": 1154,
      "unction": 1155,
      "mer": 1156,
      "ĠNone": 1157,
      "å¦": 1158,
      "ĠIf": 1159,
      "ne": 1160,
      "åĲİ": 1161,
      "ful": 1162,
      "Ġmost": 1163,
      "å£": 1164,
      "assert": 1165,
      "åĽł": 1166,
      "å¾·": 1167,
      "Ġsa": 1168,
      "ĠWh": 1169,
      "arch": 1170,
      "åīį": 1171,
      "ç¤": 1172,
      "è´": 1173,
      "Ġshould": 1174,
      "Ġ__": 1175,
      "è·": 1176,
      "yp": 1177,
      "Ġchild": 1178,
      "éŁ": 1179,
      "åĪ©": 1180,
      "ĠLicense": 1181,
      "vi": 1182,
      "æ¨": 1183,
      "ç¥": 1184,
      "æµ·": 1185,
      "rough": 1186,
      "çģ": 1187,
      "ont": 1188,
      "Ġlearn": 1189,
      "æĹ¶": 1190,
      "Ġac": 1191,
      "IN": 1192,
      "æľŁ": 1193,
      "æĦ": 1194,
      "alse": 1195,
      "Ġcre": 1196,
      "å»º": 1197,
      "Ġfirst": 1198,
      "Ġresult": 1199,
      "Ġop": 1200,
      "Ġ==": 1201,
      "sh": 1202,
      "ä¼ļ": 1203,
      "ffect": 1204,
      "å±±": 1205,
      "Ġent": 1206,
      "wn": 1207,
      "Ġgr": 1208,
      "å¤©": 1209,
      "éł": 1210,
      "uth": 1211,
      "çĦ": 1212,
      "ublic": 1213,
      "ĠAn": 1214,
      "ä»»": 1215,
      "read": 1216,
      "åĬł": 1217,
      "eg": 1218,
      "Ġonly": 1219,
      "Ġwould": 1220,
      "çŁ": 1221,
      "ract": 1222,
      "its": 1223,
      "ased": 1224,
      "å¤ĸ": 1225,
      "èĥ½": 1226,
      "to": 1227,
      "Ġdiffere": 1228,
      "èī": 1229,
      "åħĭ": 1230,
      "fig": 1231,
      "Ġ:": 1232,
      "ures": 1233,
      "ware": 1234,
      "æŃ¤": 1235,
      "Ġfl": 1236,
      "æı": 1237,
      "éĤ": 1238,
      "tp": 1239,
      "ault": 1240,
      "å·¥": 1241,
      "oint": 1242,
      "ade": 1243,
      "ics": 1244,
      "Ġph": 1245,
      "uct": 1246,
      "ample": 1247,
      "äºĮ": 1248,
      "Ġpos": 1249,
      "opy": 1250,
      "Ġra": 1251,
      "æĢ§": 1252,
      "ility": 1253,
      "ev": 1254,
      "ues": 1255,
      "Ġinv": 1256,
      "Ġinf": 1257,
      "Ġwhat": 1258,
      "Ġlike": 1259,
      "ser": 1260,
      "],": 1261,
      "ced": 1262,
      "Ġ*": 1263,
      "SER": 1264,
      "Ġgener": 1265,
      "//": 1266,
      "è³": 1267,
      "Ġbu": 1268,
      "çı": 1269,
      "èĢħ": 1270,
      "file": 1271,
      "åĲĪ": 1272,
      "äºĭ": 1273,
      "rror": 1274,
      "type": 1275,
      "Ġpor": 1276,
      "hed": 1277,
      "Ġtrans": 1278,
      "èŃ": 1279,
      "ational": 1280,
      "Ġthrough": 1281,
      "ç±": 1282,
      "Ġsystem": 1283,
      "Ġdevelop": 1284,
      "ource": 1285,
      "Ġdet": 1286,
      "ç³": 1287,
      "ÃŃa": 1288,
      "Ġmany": 1289,
      "åĢĭ": 1290,
      "ative": 1291,
      "old": 1292,
      "Ġtwo": 1293,
      "uc": 1294,
      "åº¦": 1295,
      "åħ¨": 1296,
      "ines": 1297,
      "ection": 1298,
      "orld": 1299,
      "Ġinter": 1300,
      "eng": 1301,
      "ages": 1302,
      "Ã±": 1303,
      "ons": 1304,
      "ä½¿": 1305,
      "gram": 1306,
      "è¡¨": 1307,
      "========": 1308,
      "ween": 1309,
      "fter": 1310,
      "Ġlas": 1311,
      "ident": 1312,
      "='": 1313,
      "åł": 1314,
      "å¾Ĺ": 1315,
      "é¢": 1316,
      "pr": 1317,
      "ĠAs": 1318,
      "éĢļ": 1319,
      "ments": 1320,
      "ble": 1321,
      "Ġrem": 1322,
      "Ġmake": 1323,
      "Ġoff": 1324,
      "åħ±": 1325,
      "Ġhad": 1326,
      "qual": 1327,
      "Ġatt": 1328,
      "Error": 1329,
      "util": 1330,
      "ern": 1331,
      "çĻ¼": 1332,
      "ES": 1333,
      "Ġpres": 1334,
      "version": 1335,
      "oth": 1336,
      "Ġco": 1337,
      "Ġdi": 1338,
      "å°ı": 1339,
      "åĿ": 1340,
      "ww": 1341,
      "å¹³": 1342,
      "è©": 1343,
      "ten": 1344,
      "Ġbetween": 1345,
      "hen": 1346,
      "éĩĮ": 1347,
      "åįģ": 1348,
      "Ġcur": 1349,
      "aciÃ³n": 1350,
      "co": 1351,
      "ica": 1352,
      "æĭī": 1353,
      "################": 1354,
      "ç®": 1355,
      "uring": 1356,
      "è½": 1357,
      "ĠSe": 1358,
      "ros": 1359,
      "Ġvari": 1360,
      "AT": 1361,
      "Ġfile": 1362,
      "çĽ¸": 1363,
      "Ġpol": 1364,
      "cont": 1365,
      "erg": 1366,
      "args": 1367,
      "Ġext": 1368,
      "Ġbec": 1369,
      "irect": 1370,
      "éĻ¢": 1371,
      "åħ¥": 1372,
      "åĮº": 1373,
      "ural": 1374,
      "ĠYou": 1375,
      "èĩ³": 1376,
      "Ġmed": 1377,
      "data": 1378,
      "Ġcall": 1379,
      "åıĳ": 1380,
      "cy": 1381,
      "æĵ": 1382,
      "ä½Ĩ": 1383,
      "add": 1384,
      "Ġx": 1385,
      "ethod": 1386,
      "è¶": 1387,
      "atch": 1388,
      "Ġsur": 1389,
      "pos": 1390,
      "OR": 1391,
      "Ġinform": 1392,
      "ï¼Ľ": 1393,
      "Ġser": 1394,
      "Ġlist": 1395,
      "ç§ĳ": 1396,
      "éĥ½": 1397,
      "æº": 1398,
      "åİŁ": 1399,
      "è£": 1400,
      "æ²»": 1401,
      "å¼ı": 1402,
      "ism": 1403,
      "rent": 1404,
      "plic": 1405,
      "ĠAl": 1406,
      "Ġsim": 1407,
      "Ġche": 1408,
      "url": 1409,
      "ower": 1410,
      "éĩį": 1411,
      "ask": 1412,
      "ier": 1413,
      "Ġ`": 1414,
      ">>": 1415,
      "Ġpers": 1416,
      "uch": 1417,
      "æ¥": 1418,
      "Ġwhere": 1419,
      "Ġinst": 1420,
      "èĤ": 1421,
      "æĥ": 1422,
      "ices": 1423,
      "éģĵ": 1424,
      "Ġuna": 1425,
      "ered": 1426,
      "ç³»": 1427,
      "ĠâĢĵ": 1428,
      "ting": 1429,
      "èĲ": 1430,
      "Ġeach": 1431,
      "æĺİ": 1432,
      "gan": 1433,
      "ĠHe": 1434,
      "Ġwater": 1435,
      "ement": 1436,
      "ants": 1437,
      "Ġsm": 1438,
      "æ¬¡": 1439,
      "ature": 1440,
      "åı°": 1441,
      "cul": 1442,
      "ien": 1443,
      "å¦Ĥ": 1444,
      "ĠHow": 1445,
      "Ġhealth": 1446,
      "Ġyears": 1447,
      "ired": 1448,
      "éĿ¢": 1449,
      "chn": 1450,
      "Ġfol": 1451,
      "Ġcar": 1452,
      "å·ŀ": 1453,
      "åħĥ": 1454,
      "ists": 1455,
      "æĪĸ": 1456,
      "round": 1457,
      "è²": 1458,
      "work": 1459,
      "åĬĽ": 1460,
      "åŁº": 1461,
      "ough": 1462,
      "èĻ": 1463,
      "Ġloc": 1464,
      "Ġpass": 1465,
      "ran": 1466,
      "Ġref": 1467,
      "ĠPro": 1468,
      "å°Ķ": 1469,
      "que": 1470,
      "ected": 1471,
      "vir": 1472,
      "Ġfound": 1473,
      "èĳ": 1474,
      "Ġusing": 1475,
      "ife": 1476,
      "://": 1477,
      "çł": 1478,
      "Ġsc": 1479,
      "å¢": 1480,
      "ĠWe": 1481,
      "ï¼īï¼Į": 1482,
      "ä¸İ": 1483,
      "ĠFor": 1484,
      "Ġwell": 1485,
      "åĪ¶": 1486,
      "ins": 1487,
      "åįĢ": 1488,
      "Ġos": 1489,
      "fore": 1490,
      "èĭ±": 1491,
      "Ġprint": 1492,
      "ator": 1493,
      "ada": 1494,
      "Ġprocess": 1495,
      "ify": 1496,
      "val": 1497,
      "Ġprogram": 1498,
      "ĠAr": 1499,
      "Ġhigh": 1500,
      "Ġsign": 1501,
      "ĠCom": 1502,
      "oy": 1503,
      "inal": 1504,
      "æŁ": 1505,
      "Ġval": 1506,
      "de": 1507,
      "Ġfil": 1508,
      "ument": 1509,
      "ä¾Ĩ": 1510,
      "Ġnumber": 1511,
      "Ġelse": 1512,
      "ç¸": 1513,
      "The": 1514,
      "cent": 1515,
      "Ġ}": 1516,
      "Ġlong": 1517,
      "Ġsee": 1518,
      "thon": 1519,
      "init": 1520,
      "Ġcould": 1521,
      "Ġdifferent": 1522,
      "Ġtype": 1523,
      "å®ī": 1524,
      "True": 1525,
      "Ġed": 1526,
      "ody": 1527,
      "Ġvalue": 1528,
      "Ġwrit": 1529,
      "ç¦": 1530,
      "Ġthen": 1531,
      "sible": 1532,
      "ases": 1533,
      "aj": 1534,
      "Ġeven": 1535,
      "vent": 1536,
      "Ġread": 1537,
      "åģ": 1538,
      "\"\"\"": 1539,
      "fo": 1540,
      "ited": 1541,
      "é©": 1542,
      "Ġdec": 1543,
      "ily": 1544,
      "Ġrese": 1545,
      "æ°´": 1546,
      "èı": 1547,
      "ION": 1548,
      "åĤ": 1549,
      "ache": 1550,
      "ually": 1551,
      "éĩı": 1552,
      "ional": 1553,
      "å¸¸": 1554,
      "Ġinformation": 1555,
      "other": 1556,
      "In": 1557,
      "çį": 1558,
      "ology": 1559,
      "Ġend": 1560,
      "Ġcent": 1561,
      "ning": 1562,
      "Ġspec": 1563,
      "Ġfind": 1564,
      "éĩĳ": 1565,
      "Ġca": 1566,
      "æŃ£": 1567,
      "Ġher": 1568,
      "tic": 1569,
      "Ġ$": 1570,
      "Ġknow": 1571,
      "è·¯": 1572,
      "ames": 1573,
      "æ®": 1574,
      "Ġlarg": 1575,
      "Ġmin": 1576,
      "éĽ»": 1577,
      "è¿Ļ": 1578,
      "Ġkey": 1579,
      "Ġcount": 1580,
      "åŁİ": 1581,
      "åı²": 1582,
      "Ġpat": 1583,
      "Ãº": 1584,
      "oci": 1585,
      "ands": 1586,
      "åĭķ": 1587,
      "Ġcor": 1588,
      "ango": 1589,
      "é£": 1590,
      "Ġsol": 1591,
      "chool": 1592,
      "åĵ¡": 1593,
      "Ġlog": 1594,
      "Ġsk": 1595,
      "Ġhum": 1596,
      "Ġincre": 1597,
      "å¯¹": 1598,
      "å°į": 1599,
      "viron": 1600,
      "=\"": 1601,
      "ĠCan": 1602,
      "Ġexcept": 1603,
      "Ġfollow": 1604,
      "åºľ": 1605,
      "line": 1606,
      "min": 1607,
      "Ġ{\"": 1608,
      "Ġer": 1609,
      "Ġbecause": 1610,
      "def": 1611,
      "CT": 1612,
      "ĠRe": 1613,
      "ute": 1614,
      "èĬ": 1615,
      "angu": 1616,
      "è»į": 1617,
      "])": 1618,
      "cial": 1619,
      "Ġlo": 1620,
      "ars": 1621,
      "ull": 1622,
      "è¼": 1623,
      "Ġmon": 1624,
      "Ġgl": 1625,
      "ĠEx": 1626,
      "nce": 1627,
      "jango": 1628,
      "åĨĽ": 1629,
      "Ġway": 1630,
      "Ġtem": 1631,
      "any": 1632,
      "åı£": 1633,
      "sp": 1634,
      "åĽĽ": 1635,
      "ically": 1636,
      "æ¯Ķ": 1637,
      "Ġafter": 1638,
      "son": 1639,
      "ale": 1640,
      "aking": 1641,
      "Ġjust": 1642,
      "Ġ@": 1643,
      "Ġworld": 1644,
      "__(": 1645,
      "Ġprovid": 1646,
      "Ġtry": 1647,
      "æĿ¥": 1648,
      "right": 1649,
      "æ¸¯": 1650,
      "å²": 1651,
      "è«": 1652,
      "Ġtechn": 1653,
      "raph": 1654,
      "ç¨ĭ": 1655,
      "Ġdoes": 1656,
      "ever": 1657,
      "ml": 1658,
      "----------------": 1659,
      "ä¸ŃåĽ½": 1660,
      "cription": 1661,
      "requ": 1662,
      "å£«": 1663,
      "åķ": 1664,
      "ivers": 1665,
      "UT": 1666,
      "cur": 1667,
      "éĢĻ": 1668,
      "éķ¿": 1669,
      "Ġback": 1670,
      "Ġcomple": 1671,
      "Ġrespon": 1672,
      "Ġarg": 1673,
      "Ġmy": 1674,
      "å½±": 1675,
      "æľĿ": 1676,
      "ä¸¦": 1677,
      "ç·": 1678,
      "ized": 1679,
      "Ġstart": 1680,
      "åı¤": 1681,
      "ets": 1682,
      "Ġfact": 1683,
      "Ġstate": 1684,
      "Ġeffect": 1685,
      "ution": 1686,
      "å¸Ŀ": 1687,
      "éķ·": 1688,
      "Ġcomo": 1689,
      "Ġmet": 1690,
      "å¥³": 1691,
      "æģ": 1692,
      "Ġav": 1693,
      "Ġimportant": 1694,
      "'t": 1695,
      "æķ°": 1696,
      "None": 1697,
      "comm": 1698,
      "Ġmuch": 1699,
      "arm": 1700,
      "ret": 1701,
      "IC": 1702,
      "Ġperson": 1703,
      "çķĮ": 1704,
      "led": 1705,
      "Ġdep": 1706,
      "å¸ĥ": 1707,
      "ness": 1708,
      "Ġfr": 1709,
      "****": 1710,
      "ĠCon": 1711,
      "èµ·": 1712,
      "å¡": 1713,
      "Ġfam": 1714,
      "Ġcal": 1715,
      "Ġobject": 1716,
      "å½¢": 1717,
      "æĶ¹": 1718,
      "æ¢": 1719,
      "Ġbel": 1720,
      "Ġevery": 1721,
      "amb": 1722,
      "æł¼": 1723,
      "Ġpartic": 1724,
      "Ġchildren": 1725,
      "ords": 1726,
      "ety": 1727,
      "Ġgroup": 1728,
      "çĦ¶": 1729,
      "Ġvery": 1730,
      "ger": 1731,
      "Ġexpl": 1732,
      "ĠAmer": 1733,
      "æĹı": 1734,
      "Ġwhile": 1735,
      "Ġlearning": 1736,
      "ks": 1737,
      "æ¼Ķ": 1738,
      "date": 1739,
      "ives": 1740,
      "åŃĹ": 1741,
      "log": 1742,
      "ĠThere": 1743,
      "æł¡": 1744,
      "Ġfield": 1745,
      "man": 1746,
      "å°±": 1747,
      "fil": 1748,
      "ä¸ľ": 1749,
      "éŁ³": 1750,
      "Ġhist": 1751,
      "Ġlevel": 1752,
      "åĸ": 1753,
      "imes": 1754,
      "air": 1755,
      "RE": 1756,
      "ward": 1757,
      "æ©": 1758,
      "Ġrep": 1759,
      "èĹ": 1760,
      "ash": 1761,
      "az": 1762,
      "ner": 1763,
      "Test": 1764,
      "ished": 1765,
      "éĺ¿": 1766,
      "ĠQ": 1767,
      "Ġexample": 1768,
      "Ġshe": 1769,
      "Ġmain": 1770,
      "Ġcond": 1771,
      "Ġright": 1772,
      "æıĲ": 1773,
      "ĠAd": 1774,
      "ĠThey": 1775,
      "Ġear": 1776,
      "å¼Ģ": 1777,
      "ç¶ĵ": 1778,
      "å¹¶": 1779,
      "Ġproble": 1780,
      "row": 1781,
      "rop": 1782,
      "çı¾": 1783,
      "æĦı": 1784,
      "å°¼": 1785,
      "èİ": 1786,
      "Ġsaid": 1787,
      "éĸĭ": 1788,
      "lect": 1789,
      "Equal": 1790,
      "çĪ¾": 1791,
      "æİ¥": 1792,
      "come": 1793,
      "ows": 1794,
      "Ġbeing": 1795,
      "Ġassert": 1796,
      "Ġfunction": 1797,
      "Ġlook": 1798,
      "cond": 1799,
      "Ġthose": 1800,
      "dict": 1801,
      "æŀĹ": 1802,
      "ypes": 1803,
      "ted": 1804,
      "Ġ.": 1805,
      "ams": 1806,
      "ts": 1807,
      "ç¨±": 1808,
      "list": 1809,
      "é«Ķ": 1810,
      "load": 1811,
      "æķ¸": 1812,
      "Ġsci": 1813,
      "Ġsame": 1814,
      "æ¡": 1815,
      "ivid": 1816,
      "Ġfood": 1817,
      "AL": 1818,
      "ç¤¾": 1819,
      "ina": 1820,
      "Ġserv": 1821,
      "ape": 1822,
      "db": 1823,
      "ray": 1824,
      "Ġpop": 1825,
      "ç»ı": 1826,
      "dir": 1827,
      "Ġ)": 1828,
      "Ġstudents": 1829,
      "ision": 1830,
      "anguage": 1831,
      "ather": 1832,
      "Ġwithout": 1833,
      "Ġdirect": 1834,
      "Ġ('": 1835,
      "Ġdon": 1836,
      "Ġexper": 1837,
      "ential": 1838,
      "Ġmethod": 1839,
      "åĶ": 1840,
      "ĠWhat": 1841,
      "'}": 1842,
      "Ġmust": 1843,
      "arent": 1844,
      "èĺ": 1845,
      "Ġcode": 1846,
      "Ġcr": 1847,
      "çģ£": 1848,
      "å§ĭ": 1849,
      "ote": 1850,
      "åĬ¨": 1851,
      "å¤ª": 1852,
      "vironment": 1853,
      "éħ": 1854,
      "ond": 1855,
      "user": 1856,
      "Ġown": 1857,
      "the": 1858,
      "org": 1859,
      "gl": 1860,
      "tle": 1861,
      "åĪĹ": 1862,
      "ĠLa": 1863,
      "æĿ±": 1864,
      "Ġter": 1865,
      "cia": 1866,
      "Ġduring": 1867,
      "äºĽ": 1868,
      "ĠEl": 1869,
      "ids": 1870,
      "æĺŁ": 1871,
      "Ġversion": 1872,
      "é¦ĸ": 1873,
      "å¿ĥ": 1874,
      "æ·": 1875,
      "éľ": 1876,
      "Ġappro": 1877,
      "call": 1878,
      "amp": 1879,
      "é¦Ļ": 1880,
      "Ġrun": 1881,
      "ourse": 1882,
      "Ġlife": 1883,
      "Ġcurrent": 1884,
      "æµģ": 1885,
      "essage": 1886,
      "Ġlead": 1887,
      "Ġcommun": 1888,
      "oin": 1889,
      ".\"": 1890,
      "Ġmem": 1891,
      "çķ¶": 1892,
      "uments": 1893,
      "ĠNew": 1894,
      "cies": 1895,
      "Ġbefore": 1896,
      "éģİ": 1897,
      "Ġsupport": 1898,
      "field": 1899,
      "Ġstudy": 1900,
      "æĪ°": 1901,
      "ĠAN": 1902,
      "Ġĉĉ": 1903,
      "iter": 1904,
      "ains": 1905,
      "sy": 1906,
      "ron": 1907,
      "æį": 1908,
      "cer": 1909,
      "view": 1910,
      "ves": 1911,
      "AS": 1912,
      "value": 1913,
      "ccess": 1914,
      "ĠĠĠĠĠĠĠĠĠĠĠĠĠĠĠĠĠĠĠĠĠĠĠĠĠĠĠĠĠĠĠĠ": 1915,
      "äºļ": 1916,
      "æĹ¥æľ¬": 1917,
      "akes": 1918,
      "stand": 1919,
      "Ġcommon": 1920,
      "åı¸": 1921,
      "æ²³": 1922,
      "Ġi": 1923,
      "acter": 1924,
      "Ġline": 1925,
      "ico": 1926,
      "Ġuser": 1927,
      "çĽ®": 1928,
      "Ġdistribut": 1929,
      "Ġhand": 1930,
      "äº¤": 1931,
      "ĠInd": 1932,
      "uid": 1933,
      "ĠGener": 1934,
      "ĠTrue": 1935,
      "Ġapp": 1936,
      "Ã¡s": 1937,
      "Ġbody": 1938,
      "çĲĥ": 1939,
      "ament": 1940,
      "å·´": 1941,
      "Ġboth": 1942,
      "ved": 1943,
      "Ġimp": 1944,
      "ider": 1945,
      "ME": 1946,
      "Ġbuild": 1947,
      "rol": 1948,
      "Ġve": 1949,
      "Ġprot": 1950,
      "LE": 1951,
      "Ġdr": 1952,
      "Ġz": 1953,
      "çİ°": 1954,
      "day": 1955,
      "iven": 1956,
      "assertEqual": 1957,
      "äºŀ": 1958,
      "ergy": 1959,
      "Ġbre": 1960,
      "Ġsmall": 1961,
      "ral": 1962,
      "Ġtext": 1963,
      "ince": 1964,
      "åĥ": 1965,
      "Ġdise": 1966,
      "Ġopt": 1967,
      "Ġbook": 1968,
      "è¯Ń": 1969,
      "ital": 1970,
      "Ġpara": 1971,
      "Ġht": 1972,
      "atus": 1973,
      "Ġcontin": 1974,
      "Ġcap": 1975,
      "éĸĵ": 1976,
      "class": 1977,
      "åĲĦ": 1978,
      "ĠUSER": 1979,
      "ä½ĵ": 1980,
      "St": 1981,
      "åĨħ": 1982,
      "ox": 1983,
      "reg": 1984,
      "Ġreal": 1985,
      "èī²": 1986,
      "ç§°": 1987,
      "åĲĳ": 1988,
      "Ġprim": 1989,
      ".âĢĿ": 1990,
      "çľģ": 1991,
      "Ġmade": 1992,
      "Ġpath": 1993,
      "idad": 1994,
      "Ġactiv": 1995,
      "Ġvi": 1996,
      "çµ±": 1997,
      "object": 1998,
      "time": 1999,
      "orn": 2000,
      "æĮĩ": 2001,
      "Ġenc": 2002,
      "è°": 2003,
      "Ġmat": 2004,
      "uthor": 2005,
      "Ġoften": 2006,
      "Ġpoint": 2007,
      "åı¯ä»¥": 2008,
      "ç¯": 2009,
      "å°ĩ": 2010,
      "Ġcreate": 2011,
      "åħ§": 2012,
      "ries": 2013,
      "Ġday": 2014,
      "åĮħ": 2015,
      "åıĹ": 2016,
      "èªŀ": 2017,
      "word": 2018,
      "Ġgood": 2019,
      "èį": 2020,
      "ĠBut": 2021,
      "ĠTo": 2022,
      "Ġhuman": 2023,
      "col": 2024,
      "è±": 2025,
      "æĶ¿åºľ": 2026,
      "åĵģ": 2027,
      "Ġdefault": 2028,
      "ior": 2029,
      "äºĶ": 2030,
      "Ġdown": 2031,
      "Ġschool": 2032,
      "bs": 2033,
      "ified": 2034,
      "ats": 2035,
      "vern": 2036,
      "Ġredu": 2037,
      "Ġpy": 2038,
      "Ġfun": 2039,
      "å¨": 2040,
      "ources": 2041,
      "è¿ĩ": 2042,
      "å±ķ": 2043,
      "Ġdesign": 2044,
      "Ġnow": 2045,
      "Ġplan": 2046,
      "Ġocc": 2047,
      "itions": 2048,
      "ID": 2049,
      "Ġcell": 2050,
      "Ġtake": 2051,
      "ength": 2052,
      "Ġorgan": 2053,
      "çĽ´": 2054,
      "ven": 2055,
      "bin": 2056,
      "utils": 2057,
      "opyright": 2058,
      "etwork": 2059,
      "æ±Ł": 2060,
      "çłĶ": 2061,
      "ples": 2062,
      "æ¶": 2063,
      "ç¥ŀ": 2064,
      "http": 2065,
      "Ġmodel": 2066,
      "Ġsoft": 2067,
      "Ġdat": 2068,
      "æĴ": 2069,
      "æ¹": 2070,
      "iones": 2071,
      "ä¸ļ": 2072,
      "ither": 2073,
      "gen": 2074,
      "br": 2075,
      "Ġproject": 2076,
      "Ġproduct": 2077,
      "ery": 2078,
      "by": 2079,
      "Field": 2080,
      "Ġlim": 2081,
      "äº¬": 2082,
      "pect": 2083,
      "Ġvis": 2084,
      "Ġless": 2085,
      "åĳĺ": 2086,
      "ido": 2087,
      "bre": 2088,
      "Ġgrow": 2089,
      "rap": 2090,
      "æ´²": 2091,
      "Ġconn": 2092,
      "cript": 2093,
      "Ġdisc": 2094,
      "ateg": 2095,
      "ĠFalse": 2096,
      "åıį": 2097,
      "ĠRes": 2098,
      "Ġaut": 2099,
      "é¦¬": 2100,
      "for": 2101,
      "Ġris": 2102,
      "ters": 2103,
      "Ġprop": 2104,
      "ocial": 2105,
      "Ġins": 2106,
      "Ġaround": 2107,
      "ç§į": 2108,
      "Ġcalled": 2109,
      "li": 2110,
      "ĠX": 2111,
      "Ġsom": 2112,
      "ĠWhen": 2113,
      "back": 2114,
      "omen": 2115,
      "ç¬¬ä¸Ģ": 2116,
      "å§Ķ": 2117,
      "Ġelect": 2118,
      "''": 2119,
      "ales": 2120,
      "opt": 2121,
      "Ġpublic": 2122,
      "æīĭ": 2123,
      "ä¿Ŀ": 2124,
      "ican": 2125,
      "åŀ": 2126,
      "roup": 2127,
      "'),": 2128,
      "hers": 2129,
      "ç²": 2130,
      "æ©Ł": 2131,
      "ero": 2132,
      "Ġcle": 2133,
      "Ġincluding": 2134,
      "ring": 2135,
      "ization": 2136,
      "Ġident": 2137,
      "ĠThese": 2138,
      "Ġtreat": 2139,
      "rem": 2140,
      "ank": 2141,
      "ah": 2142,
      "æĪĺ": 2143,
      "ĠDe": 2144,
      "Ġrequired": 2145,
      "Ġorder": 2146,
      "ared": 2147,
      "ĠAnd": 2148,
      "Ġwant": 2149,
      "èĳĹ": 2150,
      "å·²": 2151,
      "hip": 2152,
      "itle": 2153,
      "text": 2154,
      "æ£": 2155,
      "ados": 2156,
      "EN": 2157,
      "mb": 2158,
      "Ġopen": 2159,
      "function": 2160,
      "not": 2161,
      "inst": 2162,
      "ious": 2163,
      "Ġresearch": 2164,
      "éĽĨ": 2165,
      "Ġconf": 2166,
      "ç¨®": 2167,
      "bers": 2168,
      "ems": 2169,
      "ç»Ł": 2170,
      "():": 2171,
      "uture": 2172,
      "Ġ/": 2173,
      "aterial": 2174,
      "Ġinclude": 2175,
      "ä½¿çĶ¨": 2176,
      "Ġchang": 2177,
      "é¦Ļæ¸¯": 2178,
      "ç®¡": 2179,
      "ma": 2180,
      "ä¿¡": 2181,
      "oun": 2182,
      "atic": 2183,
      "ç±³": 2184,
      "é©¬": 2185,
      "å³": 2186,
      "Ġpresent": 2187,
      "åĳ½": 2188,
      "æħ": 2189,
      "aces": 2190,
      "ole": 2191,
      "éĹ´": 2192,
      "è¨Ģ": 2193,
      "è§£": 2194,
      "less": 2195,
      "uss": 2196,
      "sc": 2197,
      "Ġreport": 2198,
      "çĿ": 2199,
      "éĿŀ": 2200,
      "ubl": 2201,
      "Ġorig": 2202,
      "gg": 2203,
      "resent": 2204,
      "Ġthree": 2205,
      "fe": 2206,
      "ĠCl": 2207,
      "ead": 2208,
      "iversity": 2209,
      "ç¾©": 2210,
      "Ġpower": 2211,
      "åĻ": 2212,
      "ĠĠĠĠĠĠĠĠĠĠĠĠĠ": 2213,
      "ç©¶": 2214,
      "Ġgen": 2215,
      "ope": 2216,
      "land": 2217,
      "èı¯": 2218,
      "code": 2219,
      "ĠAt": 2220,
      "Ġagain": 2221,
      "Ġlanguage": 2222,
      "æ¸ħ": 2223,
      "ĠIs": 2224,
      "Ġprovide": 2225,
      "è¿Ľ": 2226,
      "iod": 2227,
      "ï¼į": 2228,
      "éĢ²": 2229,
      "æľº": 2230,
      "IS": 2231,
      "ĠIm": 2232,
      "oh": 2233,
      "UR": 2234,
      "Ġchar": 2235,
      "way": 2236,
      "Ġspecific": 2237,
      "ĠGeneral": 2238,
      "äº§": 2239,
      "Ġenvironment": 2240,
      "ouse": 2241,
      "Ġhead": 2242,
      "ĠĠĠĠĠĠĠĠĠĠĠĠĠĠĠĠĠĠĠĠĠĠĠĠ": 2243,
      "åİ¿": 2244,
      "HE": 2245,
      "Ġgreat": 2246,
      "ability": 2247,
      "ton": 2248,
      "Ġtra": 2249,
      "be": 2250,
      "ived": 2251,
      "sw": 2252,
      "èĮ": 2253,
      "ä»¶": 2254,
      "Ġhttp": 2255,
      "ï¼īãĢĤ": 2256,
      "æĽ´": 2257,
      "Ġcheck": 2258,
      "Ġplay": 2259,
      "Ġoper": 2260,
      "NU": 2261,
      "Ġraise": 2262,
      "æ¥Ń": 2263,
      "å°ĳ": 2264,
      "ciÃ³n": 2265,
      "Ġanal": 2266,
      "ç¿": 2267,
      "çĭ": 2268,
      "bl": 2269,
      "åĦ": 2270,
      "uro": 2271,
      "Ġdoc": 2272,
      "ĠPublic": 2273,
      "èĢĥ": 2274,
      "ç½Ĺ": 2275,
      "www": 2276,
      "éĵ": 2277,
      "mon": 2278,
      "ç¹": 2279,
      "çļĩ": 2280,
      "ately": 2281,
      "Ġperform": 2282,
      "çłĶç©¶": 2283,
      "ç©º": 2284,
      "append": 2285,
      "Ġfree": 2286,
      "miss": 2287,
      "Ġhere": 2288,
      "éĢł": 2289,
      "Ġke": 2290,
      "cle": 2291,
      "æĮģ": 2292,
      "Ġdev": 2293,
      "çĥ": 2294,
      "Ġenergy": 2295,
      "ng": 2296,
      "config": 2297,
      "Ġbeh": 2298,
      "Ġlab": 2299,
      "comp": 2300,
      "æ»": 2301,
      "ross": 2302,
      "atural": 2303,
      "Ġquest": 2304,
      "Ex": 2305,
      "Ġknown": 2306,
      "çīĪ": 2307,
      "USER": 2308,
      "Ġcaus": 2309,
      "arc": 2310,
      "erest": 2311,
      "ables": 2312,
      "Ġant": 2313,
      "ç¾ħ": 2314,
      "orth": 2315,
      "çĶµ": 2316,
      "ios": 2317,
      "èº": 2318,
      "Ġbro": 2319,
      "å®ĥ": 2320,
      "oms": 2321,
      "lease": 2322,
      "Ġunderstand": 2323,
      "Ġmark": 2324,
      "åį³": 2325,
      "ä¸Ńåľĭ": 2326,
      "AB": 2327,
      "éĹľ": 2328,
      "ty": 2329,
      "UN": 2330,
      "Ġ&": 2331,
      "çŁ³": 2332,
      "Ġgre": 2333,
      "Ġ{'": 2334,
      ".,": 2335,
      "ason": 2336,
      "ĠPl": 2337,
      "count": 2338,
      "Ġmodule": 2339,
      "itive": 2340,
      "agn": 2341,
      "Ġeas": 2342,
      "åħī": 2343,
      "éº": 2344,
      "from": 2345,
      "å°Ĩ": 2346,
      "Ġsys": 2347,
      "Ġchange": 2348,
      "False": 2349,
      "Ġpo": 2350,
      "Ġu": 2351,
      "Ġbas": 2352,
      "ç¢": 2353,
      "Ġold": 2354,
      "ulation": 2355,
      "ird": 2356,
      "Ġfollowing": 2357,
      "Ch": 2358,
      "Ġsoftware": 2359,
      "ised": 2360,
      "Ġtop": 2361,
      "Ġcare": 2362,
      "éŃ": 2363,
      "================": 2364,
      "å®ĺ": 2365,
      "Ġmaterial": 2366,
      "ium": 2367,
      "Ġide": 2368,
      "æĢ»": 2369,
      "ception": 2370,
      "Ġeither": 2371,
      "Ġpot": 2372,
      "ey": 2373,
      "Ġred": 2374,
      "ä¸Ģä¸ª": 2375,
      "face": 2376,
      "âĢĶâĢĶ": 2377,
      "ury": 2378,
      "ffic": 2379,
      "æĽ¾": 2380,
      "Ġmult": 2381,
      "æŃ¦": 2382,
      "Ġbased": 2383,
      "Ġgiven": 2384,
      "Ġeduc": 2385,
      "ĠOR": 2386,
      "tal": 2387,
      "Ġimpro": 2388,
      "Ġdescription": 2389,
      "Ġrequest": 2390,
      "ĠAp": 2391,
      "Ġmil": 2392,
      "åį¡": 2393,
      "ails": 2394,
      "amet": 2395,
      "RO": 2396,
      "ued": 2397,
      "ĠAll": 2398,
      "ailable": 2399,
      "å®Ĺ": 2400,
      "Ġsit": 2401,
      "ç¾İåľĭ": 2402,
      "bu": 2403,
      "ref": 2404,
      "Ġrange": 2405,
      "åŀĭ": 2406,
      "èĴ": 2407,
      "Ġart": 2408,
      ".__": 2409,
      "ividual": 2410,
      "æºĲ": 2411,
      "Ġapplic": 2412,
      "ler": 2413,
      "stit": 2414,
      "ĠCol": 2415,
      "æĿİ": 2416,
      "IL": 2417,
      "ä»Ĭ": 2418,
      "ED": 2419,
      "duct": 2420,
      "tain": 2421,
      "mit": 2422,
      "Ġdesc": 2423,
      "çĹ": 2424,
      "Ġlast": 2425,
      "äººæ°ĳ": 2426,
      "è®¾": 2427,
      "Ġver": 2428,
      "Ġcomput": 2429,
      "||": 2430,
      "èĩº": 2431,
      "Ġcost": 2432,
      "Ġshow": 2433,
      "ĠSh": 2434,
      "ones": 2435,
      "ĠZ": 2436,
      "andom": 2437,
      "Ġlarge": 2438,
      "Ġoutput": 2439,
      "conom": 2440,
      "Ġmill": 2441,
      "Ġrece": 2442,
      "roll": 2443,
      "åįİ": 2444,
      "ç¸½": 2445,
      "ering": 2446,
      "Ġsecond": 2447,
      "åķĨ": 2448,
      "åĻ¨": 2449,
      "Ġlib": 2450,
      "å½ĵ": 2451,
      "ä¸ĸçķĮ": 2452,
      "åıĸ": 2453,
      "Ġmus": 2454,
      "Ġsource": 2455,
      "åħ©": 2456,
      "Ġfin": 2457,
      "ording": 2458,
      "empl": 2459,
      "Ġsl": 2460,
      "èº«": 2461,
      "Ġpract": 2462,
      "til": 2463,
      "outh": 2464,
      "æĶ¯": 2465,
      "Ġtask": 2466,
      "ĠOF": 2467,
      "Ġmen": 2468,
      "Ġthink": 2469,
      "éģĭ": 2470,
      "Ġeng": 2471,
      "arget": 2472,
      "info": 2473,
      "Ġfew": 2474,
      "ĠHowever": 2475,
      "ä¹ī": 2476,
      "Ġadv": 2477,
      "Ġstill": 2478,
      "å¤«": 2479,
      "çĻ½": 2480,
      "Ġcult": 2481,
      "ories": 2482,
      "itional": 2483,
      "plement": 2484,
      "models": 2485,
      ",âĢĿ": 2486,
      "Ġarea": 2487,
      "Ġgovern": 2488,
      "Ġwithin": 2489,
      "ession": 2490,
      "alk": 2491,
      "æĻ®": 2492,
      "ä¸»è¦ģ": 2493,
      "Ġequ": 2494,
      "ç´Ħ": 2495,
      "Ġiss": 2496,
      "æ´»": 2497,
      "Ġpri": 2498,
      "ante": 2499,
      "ches": 2500,
      "Ġpur": 2501,
      "è¨Ń": 2502,
      "åıĪ": 2503,
      "ç¼": 2504,
      "ertain": 2505,
      "ined": 2506,
      "imate": 2507,
      "module": 2508,
      "met": 2509,
      "æĩ": 2510,
      "Ġstruct": 2511,
      "Ġconfig": 2512,
      "ĠGNU": 2513,
      "ik": 2514,
      "ĠOr": 2515,
      "æĥħ": 2516,
      "ida": 2517,
      "Ġalg": 2518,
      "Ġvol": 2519,
      "Ġdid": 2520,
      "Ġplace": 2521,
      "Ġsocial": 2522,
      "Ġmight": 2523,
      "struct": 2524,
      "Ġphys": 2525,
      "oding": 2526,
      "Ġben": 2527,
      "Ġlocal": 2528,
      "num": 2529,
      "Ġtrain": 2530,
      "ribute": 2531,
      "yn": 2532,
      "åıª": 2533,
      "Ġallow": 2534,
      "wargs": 2535,
      "Ġlight": 2536,
      "æ³¢": 2537,
      "Ġgu": 2538,
      "Ġet": 2539,
      "tings": 2540,
      "è¿ĳ": 2541,
      "ensor": 2542,
      "Ġanother": 2543,
      "ways": 2544,
      "Ġindividual": 2545,
      "ĠmÃ¡s": 2546,
      "åĽŀ": 2547,
      "me": 2548,
      "Ġanim": 2549,
      "èĤ²": 2550,
      "iving": 2551,
      "ä¾ĭ": 2552,
      "åħ³": 2553,
      "Ġdisease": 2554,
      "umn": 2555,
      "Ġcopy": 2556,
      "ename": 2557,
      "çĳ": 2558,
      "hes": 2559,
      "med": 2560,
      "Ġexist": 2561,
      "åľŁ": 2562,
      "Ġair": 2563,
      "é¾": 2564,
      "([": 2565,
      "Ġdistributed": 2566,
      "Ġsent": 2567,
      "ĠTr": 2568,
      "Ġlaw": 2569,
      "of": 2570,
      "era": 2571,
      "``": 2572,
      "Ġpost": 2573,
      "èħ": 2574,
      "ĠSee": 2575,
      "ä¸¤": 2576,
      "Ġcontrol": 2577,
      "åīĩ": 2578,
      "æŀľ": 2579,
      "ream": 2580,
      "åıĤ": 2581,
      "Ġmeans": 2582,
      "obal": 2583,
      "Ġamount": 2584,
      "Ġdevelopment": 2585,
      "Ġaccess": 2586,
      "Ġstring": 2587,
      "Ġinterest": 2588,
      "Ġdjango": 2589,
      "ann": 2590,
      "lab": 2591,
      "ĠâĢĺ": 2592,
      "ends": 2593,
      "ique": 2594,
      "...": 2595,
      "\"]": 2596,
      "format": 2597,
      "ING": 2598,
      "CTION": 2599,
      "play": 2600,
      "lib": 2601,
      "plied": 2602,
      "çµĲ": 2603,
      "oid": 2604,
      "here": 2605,
      "äººåı£": 2606,
      "mat": 2607,
      "ç¤º": 2608,
      "Ġinvol": 2609,
      "Ġcontain": 2610,
      "ging": 2611,
      "ience": 2612,
      "Ġprof": 2613,
      "Ġsuccess": 2614,
      "ĠUniversity": 2615,
      "HO": 2616,
      "ek": 2617,
      "ĠPh": 2618,
      "Ġlater": 2619,
      ".\"\"\"": 2620,
      "æ¿": 2621,
      "Ġtotal": 2622,
      "Ġhome": 2623,
      "èĺŃ": 2624,
      "iness": 2625,
      "Ġstand": 2626,
      "veral": 2627,
      "åħĪ": 2628,
      "serv": 2629,
      "Ġ[]": 2630,
      "join": 2631,
      "ression": 2632,
      "raw": 2633,
      "por": 2634,
      "æ´¾": 2635,
      "ando": 2636,
      "Ġcourse": 2637,
      "Ġmeas": 2638,
      "ients": 2639,
      "Ġkeep": 2640,
      "ively": 2641,
      "Ġmar": 2642,
      "Ġfeel": 2643,
      "ä¹¦": 2644,
      "idd": 2645,
      "åħŃ": 2646,
      "\"}": 2647,
      "æĶ¾": 2648,
      "ĠâĢĶ": 2649,
      "default": 2650,
      "ä¼Ĭ": 2651,
      "Ġcontext": 2652,
      "æĶ¿æ²»": 2653,
      "èŃ°": 2654,
      "Ġpain": 2655,
      "æĭ¬": 2656,
      "Ġalong": 2657,
      "å¤§åŃ¦": 2658,
      "æĽ¸": 2659,
      "aving": 2660,
      "åĤ³": 2661,
      "Ġcreat": 2662,
      "Ġhim": 2663,
      "Ġ['": 2664,
      "aÃ±": 2665,
      "Ġsuper": 2666,
      "Ġnp": 2667,
      "Ġrest": 2668,
      "NA": 2669,
      "Con": 2670,
      "Ġlet": 2671,
      "å®ŀ": 2672,
      "èªª": 2673,
      "Ġpubl": 2674,
      "aw": 2675,
      "é¤": 2676,
      "Ġnatural": 2677,
      "Ġ--": 2678,
      "çĦ¡": 2679,
      "Ġrisk": 2680,
      "Ġmov": 2681,
      "Ġbo": 2682,
      "aster": 2683,
      "Ġcho": 2684,
      "fl": 2685,
      "Ġnon": 2686,
      "èģĶ": 2687,
      "Ġ**": 2688,
      "Ġoccur": 2689,
      "Ġbest": 2690,
      "ĠOn": 2691,
      "ality": 2692,
      "âĢĵ": 2693,
      "ino": 2694,
      "Ġhab": 2695,
      "Ġplant": 2696,
      "ä»İ": 2697,
      "Âł": 2698,
      "cip": 2699,
      "my": 2700,
      "Ġblood": 2701,
      "Ġavailable": 2702,
      "è§Ĵ": 2703,
      "ç»Ħ": 2704,
      "ĠCO": 2705,
      "Ġprom": 2706,
      "ours": 2707,
      "ĠCopyright": 2708,
      "ĠAmerican": 2709,
      "loc": 2710,
      "arr": 2711,
      "åŃĺ": 2712,
      "atures": 2713,
      "Ġinput": 2714,
      "é¡ŀ": 2715,
      "Ġresults": 2716,
      "Ġespe": 2717,
      "Ġdict": 2718,
      "Ġcause": 2719,
      "Pro": 2720,
      "ajor": 2721,
      "ograph": 2722,
      "Ġmean": 2723,
      "æł¹": 2724,
      "writ": 2725,
      "Ġsignific": 2726,
      "ills": 2727,
      "plit": 2728,
      "Ġ<<": 2729,
      "################################": 2730,
      "çĶ¢": 2731,
      "Ġport": 2732,
      "mente": 2733,
      "ĠSp": 2734,
      "run": 2735,
      "size": 2736,
      "Ġcu": 2737,
      "Ġpossible": 2738,
      "ĠEst": 2739,
      "èĦ": 2740,
      "Ġview": 2741,
      "ots": 2742,
      "ogn": 2743,
      "ĠSo": 2744,
      "string": 2745,
      "Ġperiod": 2746,
      "Ġbetter": 2747,
      "[\"": 2748,
      "Ã¡n": 2749,
      "Ġlow": 2750,
      "Ġmodels": 2751,
      "Ġshort": 2752,
      "éģ¸": 2753,
      "ĠaÃ±": 2754,
      "Ġmove": 2755,
      "Ġ'{": 2756,
      "ration": 2757,
      "åĮħæĭ¬": 2758,
      "Ġlen": 2759,
      "Ġpercent": 2760,
      "ĠãĢĬ": 2761,
      "åĪĿ": 2762,
      "Ġsus": 2763,
      "Ġleg": 2764,
      "Ġhistory": 2765,
      "erty": 2766,
      "Ġparent": 2767,
      "è®¡": 2768,
      "Ġresponse": 2769,
      "æŃĮ": 2770,
      "èģ¯": 2771,
      "è¾¾": 2772,
      "çŁ¥": 2773,
      "head": 2774,
      "mp": 2775,
      "éĢĿ": 2776,
      "å±Ģ": 2777,
      "Ġbeg": 2778,
      "ç±»": 2779,
      "Ġtoo": 2780,
      "max": 2781,
      "ĠANY": 2782,
      "Ġ{}": 2783,
      "Ġur": 2784,
      "cing": 2785,
      "go": 2786,
      "ises": 2787,
      "å¾Ī": 2788,
      "Ġtre": 2789,
      "ĠTest": 2790,
      "éĥ¨åĪĨ": 2791,
      "Ġ>": 2792,
      "Ġcase": 2793,
      "Ġbecome": 2794,
      "åħ¶ä»ĸ": 2795,
      "Ġparticular": 2796,
      "éĦ": 2797,
      "CH": 2798,
      "group": 2799,
      "ä»¥åıĬ": 2800,
      "rip": 2801,
      "inter": 2802,
      "Ġseveral": 2803,
      "Ġtrad": 2804,
      "Ġrepresent": 2805,
      "MA": 2806,
      "åİ»": 2807,
      "ply": 2808,
      "ç´Ģ": 2809,
      "Ġappe": 2810,
      "uel": 2811,
      "éģĶ": 2812,
      "å¯¦": 2813,
      "Ġinfl": 2814,
      "Ġdeterm": 2815,
      "Ġevent": 2816,
      "rel": 2817,
      "ormal": 2818,
      "Ġconditions": 2819,
      "Ġwomen": 2820,
      "ĠOne": 2821,
      "Ġscient": 2822,
      "Ġsize": 2823,
      "DE": 2824,
      "çĩ": 2825,
      "ump": 2826,
      "rist": 2827,
      "ustom": 2828,
      ",\"": 2829,
      "ç«Ļ": 2830,
      "åĳ¨": 2831,
      "Ġmanag": 2832,
      "Ġeconom": 2833,
      "Ã©s": 2834,
      "Ġmonth": 2835,
      "yle": 2836,
      "çĸ": 2837,
      "amples": 2838,
      "Ġbus": 2839,
      "do": 2840,
      "respon": 2841,
      "ĠĠĠĠĠĠĠĠĠĠ": 2842,
      "åł´": 2843,
      "è¨Ī": 2844,
      "UL": 2845,
      "ops": 2846,
      "ides": 2847,
      "ĠThat": 2848,
      "elect": 2849,
      "åŁŁ": 2850,
      "ç·ļ": 2851,
      "å¾ŀ": 2852,
      "ards": 2853,
      "ently": 2854,
      "aut": 2855,
      "Ġwords": 2856,
      "ä¸ĢåĢĭ": 2857,
      "ination": 2858,
      "*-": 2859,
      "Ġson": 2860,
      "Ġsum": 2861,
      "rect": 2862,
      "Ġmach": 2863,
      "ules": 2864,
      "éĻ¤": 2865,
      "å¤§åŃ¸": 2866,
      "Ġrad": 2867,
      "za": 2868,
      "Ġfue": 2869,
      "Ġtimes": 2870,
      "start": 2871,
      "Ġearly": 2872,
      "ä»¬": 2873,
      "å¨ģ": 2874,
      "åİĨ": 2875,
      "ological": 2876,
      "\".": 2877,
      "ONSE": 2878,
      "ances": 2879,
      "erence": 2880,
      "æŃ»": 2881,
      "Ġintern": 2882,
      "æĹ©": 2883,
      "åħ«": 2884,
      "æĶ¶": 2885,
      "ving": 2886,
      "enses": 2887,
      "åıĥ": 2888,
      "conn": 2889,
      "instance": 2890,
      "Ġaffect": 2891,
      "å¸Į": 2892,
      "è¦ĸ": 2893,
      "Ġabs": 2894,
      "çº¦": 2895,
      "çĵ": 2896,
      "æĽ²": 2897,
      "Ġ-*-": 2898,
      "Ġproblem": 2899,
      "ought": 2900,
      "ume": 2901,
      "request": 2902,
      "å±ŀ": 2903,
      "çµĦ": 2904,
      "ä¸Ķ": 2905,
      "å¤®": 2906,
      "fields": 2907,
      "ĠEngl": 2908,
      "ilar": 2909,
      "import": 2910,
      "Ġlit": 2911,
      "Ġlik": 2912,
      "bo": 2913,
      "python": 2914,
      "MP": 2915,
      "Ġable": 2916,
      "Ġfamily": 2917,
      "sub": 2918,
      "Ġconsider": 2919,
      "ĠHere": 2920,
      "Ġ\\": 2921,
      "ĠUnited": 2922,
      "erc": 2923,
      "Ġdest": 2924,
      "iment": 2925,
      "ç¡": 2926,
      "ators": 2927,
      "åħ·": 2928,
      "ency": 2929,
      "Ġlink": 2930,
      "ights": 2931,
      "ended": 2932,
      "å±ħ": 2933,
      "itor": 2934,
      "æĸĩåĮĸ": 2935,
      "md": 2936,
      "new": 2937,
      "ESP": 2938,
      "Ġbenef": 2939,
      "Ġbi": 2940,
      "Ġtypes": 2941,
      "å®Į": 2942,
      "Ġfore": 2943,
      "Ġnext": 2944,
      "æĸĻ": 2945,
      "ta": 2946,
      "arguments": 2947,
      "æĬĢ": 2948,
      "ET": 2949,
      "tes": 2950,
      "icult": 2951,
      "cal": 2952,
      "Ġterm": 2953,
      "Ġspecies": 2954,
      "action": 2955,
      "Ġoption": 2956,
      "())": 2957,
      "state": 2958,
      "Ġsince": 2959,
      "çĤ¹": 2960,
      "ä¸ŃçļĦ": 2961,
      "Ġland": 2962,
      "èªį": 2963,
      "********": 2964,
      "åĽ½å®¶": 2965,
      "attr": 2966,
      "ags": 2967,
      "ending": 2968,
      "ires": 2969,
      "Ġhig": 2970,
      "ocus": 2971,
      "Ġsym": 2972,
      "ura": 2973,
      "è¿Ĳ": 2974,
      "éĢĿä¸ĸ": 2975,
      "ored": 2976,
      "ification": 2977,
      "çīĩ": 2978,
      "Ġvalues": 2979,
      "ĠPy": 2980,
      "åħ¬åı¸": 2981,
      "Ġage": 2982,
      "ĠWAR": 2983,
      "ä¸Ńå¤®": 2984,
      "åħ°": 2985,
      "è®®": 2986,
      "é¢Ĩ": 2987,
      "çħ": 2988,
      "des": 2989,
      "ä¼¯": 2990,
      "acy": 2991,
      "Ġcontent": 2992,
      "return": 2993,
      "Ġprevent": 2994,
      "Ġvir": 2995,
      "Ġuntil": 2996,
      "Ġnetwork": 2997,
      "aps": 2998,
      "Ġinit": 2999,
      "åį°": 3000,
      "è»Ĭ": 3001,
      "çĮ": 3002,
      "è«ĸ": 3003,
      "vert": 3004,
      "Ġimpact": 3005,
      "eren": 3006,
      "ĠTe": 3007,
      "host": 3008,
      "æ¬Ĭ": 3009,
      "Ġblock": 3010,
      "AN": 3011,
      "Ġnear": 3012,
      "Ġgeneral": 3013,
      "ç´ł": 3014,
      "ingle": 3015,
      "].": 3016,
      "create": 3017,
      "æ¯į": 3018,
      "Ġbr": 3019,
      "fr": 3020,
      "åħµ": 3021,
      "åı°çģ£": 3022,
      "Ġareas": 3023,
      "Ġmajor": 3024,
      "Ġpap": 3025,
      "åĩºçĶŁ": 3026,
      "ĠIN": 3027,
      "'],": 3028,
      "ĠCent": 3029,
      "Ġtool": 3030,
      "å¼ķ": 3031,
      "çİĩ": 3032,
      "iver": 3033,
      "ohn": 3034,
      "etime": 3035,
      "ĠĠĠĠĠĠĠ": 3036,
      "Ġtemper": 3037,
      "ething": 3038,
      "èĻŁ": 3039,
      "æİ¨": 3040,
      "è®°": 3041,
      "ush": 3042,
      "Cl": 3043,
      "Ġprovided": 3044,
      "Th": 3045,
      "Ġcir": 3046,
      "è®Ĭ": 3047,
      "Ġstep": 3048,
      "ores": 3049,
      "Ġagainst": 3050,
      "ĠLe": 3051,
      "ESPONSE": 3052,
      "UNCTION": 3053,
      "æľª": 3054,
      "ĠUS": 3055,
      "ĠSome": 3056,
      "Ġfund": 3057,
      "Ġterms": 3058,
      "ieve": 3059,
      "æ¨Ĥ": 3060,
      "ĠÂ": 3061,
      "çĻ¾": 3062,
      "ĠMed": 3063,
      "ç¦ı": 3064,
      "è¯´": 3065,
      "OT": 3066,
      "Ġthings": 3067,
      "RANT": 3068,
      "Ġsw": 3069,
      "Ġpublished": 3070,
      "omet": 3071,
      "ç¾İåĽ½": 3072,
      "ention": 3073,
      "Ġword": 3074,
      "olution": 3075,
      "Ġcalcul": 3076,
      "åĨį": 3077,
      "åħļ": 3078,
      "åħ±åĴĮ": 3079,
      "len": 3080,
      "å®£": 3081,
      "ĠPar": 3082,
      "att": 3083,
      "ured": 3084,
      "ä»¤": 3085,
      "odes": 3086,
      "Ġassoci": 3087,
      "flow": 3088,
      "ç»ĵ": 3089,
      "osp": 3090,
      "ĠBy": 3091,
      "åĢĳ": 3092,
      "ĠWARRANT": 3093,
      "æ¹ĸ": 3094,
      "dis": 3095,
      "Ġbase": 3096,
      "å¢ĥ": 3097,
      "ĠFUNCTION": 3098,
      "Ġask": 3099,
      "ete": 3100,
      "åĬŁ": 3101,
      "Ġprin": 3102,
      "CO": 3103,
      "Ġsay": 3104,
      "Ġaddress": 3105,
      "place": 3106,
      "Ġturn": 3107,
      "Ġbrain": 3108,
      "Ġ'''": 3109,
      "abl": 3110,
      "ĠRESPONSE": 3111,
      "Ġneeds": 3112,
      "å¢ŀ": 3113,
      "Ġsays": 3114,
      "Ġproblems": 3115,
      "Ġcells": 3116,
      "ĠSy": 3117,
      "çº§": 3118,
      "ilt": 3119,
      "ploy": 3120,
      "Ġbehav": 3121,
      "functioncall": 3122,
      "Ġhard": 3123,
      "ç¸£": 3124,
      "Ġflow": 3125,
      "ano": 3126,
      "Ġ+=": 3127,
      "ĠGo": 3128,
      "çĨ": 3129,
      "åĽłæŃ¤": 3130,
      "most": 3131,
      "è±¡": 3132,
      "Ġcertain": 3133,
      "Ġimage": 3134,
      "urope": 3135,
      "éĿ©": 3136,
      "ä¼ł": 3137,
      "ĠIS": 3138,
      "result": 3139,
      "Ġcountry": 3140,
      "Ġåľ¨": 3141,
      "da": 3142,
      "æ¯ı": 3143,
      "ians": 3144,
      "api": 3145,
      "cs": 3146,
      "no": 3147,
      "ĠBe": 3148,
      "Ġabove": 3149,
      "Ġurl": 3150,
      "è®º": 3151,
      "ç®Ĺ": 3152,
      "äº¦": 3153,
      "Ġdri": 3154,
      "ĠStates": 3155,
      "idence": 3156,
      "Ġauthor": 3157,
      "æ§": 3158,
      "mun": 3159,
      "ched": 3160,
      "Ġfour": 3161,
      "ä¸įåĲĮ": 3162,
      "Ġothers": 3163,
      "Ġindust": 3164,
      "ï¼īãĢģ": 3165,
      "RI": 3166,
      "åĬ¡": 3167,
      "django": 3168,
      "uy": 3169,
      "Ġcolor": 3170,
      "ario": 3171,
      "base": 3172,
      "amente": 3173,
      "Ġlevels": 3174,
      "Ġens": 3175,
      "vious": 3176,
      "åĵĪ": 3177,
      "~~": 3178,
      "ĠDr": 3179,
      "æ±Ĥ": 3180,
      "æļ": 3181,
      "Ġartic": 3182,
      "Ġaccount": 3183,
      "Ġhost": 3184,
      "spe": 3185,
      "åı·": 3186,
      "Ġmaking": 3187,
      "ä¹Ŀ": 3188,
      "Ġcreated": 3189,
      "icro": 3190,
      "åħ¶ä¸Ń": 3191,
      "Ġdocument": 3192,
      "æĩī": 3193,
      "Ġspace": 3194,
      "ication": 3195,
      "Ġtechnology": 3196,
      "AP": 3197,
      "Ġtreatment": 3198,
      "kwargs": 3199,
      "ä¿®": 3200,
      "æ¦": 3201,
      "Ġpattern": 3202,
      "ctions": 3203,
      "Mod": 3204,
      "ĠAdd": 3205,
      "Ġgovernment": 3206,
      "éĶ": 3207,
      "Ġalways": 3208,
      "Ġpack": 3209,
      "Ġconst": 3210,
      "éłĺ": 3211,
      "Ġput": 3212,
      "è¶Ĭ": 3213,
      "exp": 3214,
      "Ã©n": 3215,
      "ades": 3216,
      "print": 3217,
      "å¾Ģ": 3218,
      "Ġge": 3219,
      "Ġpress": 3220,
      "AC": 3221,
      "af": 3222,
      "çĹħ": 3223,
      "ç¾¤": 3224,
      "ador": 3225,
      "rary": 3226,
      "ideo": 3227,
      "fact": 3228,
      "èĬ±": 3229,
      "Ġesc": 3230,
      "æķ´": 3231,
      "Ġtoday": 3232,
      "å³¶": 3233,
      "imient": 3234,
      "Ġoptions": 3235,
      "ĠYork": 3236,
      "Ġmax": 3237,
      "ç¬¬äºĮ": 3238,
      "éĮ": 3239,
      "ĠNational": 3240,
      "Ġsystems": 3241,
      "ae": 3242,
      "Ġfocus": 3243,
      "è³ĩ": 3244,
      "ĠWith": 3245,
      "Ġpotential": 3246,
      "å¹¿": 3247,
      "Ġheart": 3248,
      "param": 3249,
      "Ġdue": 3250,
      "status": 3251,
      "oftware": 3252,
      "Com": 3253,
      "PO": 3254,
      "Ġhapp": 3255,
      "éĢŁ": 3256,
      "Ġdom": 3257,
      "Ġwriting": 3258,
      "Type": 3259,
      "Ġsomething": 3260,
      "ĠTHE": 3261,
      "Ġrequire": 3262,
      "ĠWIT": 3263,
      "é²": 3264,
      "ĠĠĠĠĠĠĠĠĠĠĠĠĠĠĠĠĠ": 3265,
      "Ġlay": 3266,
      "æĺĵ": 3267,
      "ä¸ĩ": 3268,
      "ready": 3269,
      "Ġlimit": 3270,
      "å¾ĭ": 3271,
      "çª": 3272,
      "é»¨": 3273,
      "åįĬ": 3274,
      "order": 3275,
      "Ġsure": 3276,
      "Ġchanges": 3277,
      "Ġfull": 3278,
      "æ¨¡": 3279,
      "now": 3280,
      "Ġsugg": 3281,
      "æľ¯": 3282,
      "ĠEar": 3283,
      "ĠSci": 3284,
      "Ġsuggest": 3285,
      "Ġimprove": 3286,
      "title": 3287,
      "ĠCar": 3288,
      "å¤Ħ": 3289,
      "æ±ī": 3290,
      "å°İ": 3291,
      "Ġpast": 3292,
      "çº¿": 3293,
      "Ġaction": 3294,
      "ITY": 3295,
      "æŃ·": 3296,
      "çºª": 3297,
      "Ġdig": 3298,
      "(),": 3299,
      "æ®µ": 3300,
      "pre": 3301,
      "å¯Ĩ": 3302,
      "eturn": 3303,
      "index": 3304,
      "ä¸ĥ": 3305,
      "ĠBl": 3306,
      "html": 3307,
      "ilities": 3308,
      "utf": 3309,
      "éĸĢ": 3310,
      "çĶ·": 3311,
      "çļĦä¸Ģ": 3312,
      "Ġmessage": 3313,
      "orith": 3314,
      "ane": 3315,
      "oss": 3316,
      "Ġcome": 3317,
      "åı¦": 3318,
      "Ġamong": 3319,
      "Ġinvest": 3320,
      "è¡ĵ": 3321,
      "ĠMan": 3322,
      "æĹł": 3323,
      "éª": 3324,
      "æĢĿ": 3325,
      "utes": 3326,
      "åı¯èĥ½": 3327,
      "icy": 3328,
      "æĪĳ": 3329,
      "å¥½": 3330,
      "æŁ¥": 3331,
      "Ġpage": 3332,
      "Ġdescrib": 3333,
      "write": 3334,
      "verage": 3335,
      "check": 3336,
      "Ġfar": 3337,
      "ister": 3338,
      "ysis": 3339,
      "Ġdays": 3340,
      "æķħ": 3341,
      "æķĻèĤ²": 3342,
      "Ġfiles": 3343,
      "uit": 3344,
      "ĉĉ": 3345,
      "æľį": 3346,
      "åºĶ": 3347,
      "åĭĻ": 3348,
      "yd": 3349,
      "Ġinc": 3350,
      "itud": 3351,
      "ĠGe": 3352,
      "ember": 3353,
      "ĠPr": 3354,
      "Ġdem": 3355,
      "ips": 3356,
      "ze": 3357,
      "éĢ£": 3358,
      "urther": 3359,
      "Ġleft": 3360,
      "å¯¼": 3361,
      "Ġdeb": 3362,
      "Ġ'{\"": 3363,
      "ctor": 3364,
      "epend": 3365,
      "icial": 3366,
      "ä½ķ": 3367,
      "Ġcancer": 3368,
      "Ġfac": 3369,
      "thing": 3370,
      "loat": 3371,
      "æį®": 3372,
      "ä»£è¡¨": 3373,
      "ĠCont": 3374,
      "length": 3375,
      "ably": 3376,
      "ĠDo": 3377,
      "Ġfields": 3378,
      "pass": 3379,
      "Ġ!": 3380,
      "cially": 3381,
      "Ġcollect": 3382,
      "ped": 3383,
      "èĭı": 3384,
      "å±¬": 3385,
      "ught": 3386,
      "èĩ´": 3387,
      "Ġsignificant": 3388,
      "Ġcharacter": 3389,
      "æ²Ļ": 3390,
      "ç½®": 3391,
      "Ġelif": 3392,
      "ĠDes": 3393,
      "dat": 3394,
      "mbol": 3395,
      "Ġsimilar": 3396,
      "eral": 3397,
      "uction": 3398,
      "Ġincrease": 3399,
      "åħ¸": 3400,
      "ana": 3401,
      "åıĺ": 3402,
      "Ġglobal": 3403,
      "è®¤": 3404,
      "Ġlittle": 3405,
      "ences": 3406,
      "Ġusually": 3407,
      "ML": 3408,
      "ias": 3409,
      "åĪ¥": 3410,
      "æ½": 3411,
      "åĶĲ": 3412,
      "dom": 3413,
      "adas": 3414,
      "Ġess": 3415,
      "uer": 3416,
      "ĠSoftware": 3417,
      "è¶ħ": 3418,
      "oud": 3419,
      "Ġsal": 3420,
      "valid": 3421,
      "Ġmillion": 3422,
      "fric": 3423,
      "ptoms": 3424,
      "Ġtable": 3425,
      "though": 3426,
      "Res": 3427,
      "Ġvarious": 3428,
      "å®¹": 3429,
      "å¼µ": 3430,
      "Re": 3431,
      "æĥ³": 3432,
      "åĥı": 3433,
      "Ġcolle": 3434,
      "uration": 3435,
      "ĠCal": 3436,
      "Ġdetails": 3437,
      "Case": 3438,
      "Ġir": 3439,
      "Ġgive": 3440,
      "åĿĩ": 3441,
      "ait": 3442,
      "Ġlikely": 3443,
      "æĿĥ": 3444,
      "ĠFound": 3445,
      "fer": 3446,
      "Ġspecial": 3447,
      "json": 3448,
      "aves": 3449,
      "éĤ£": 3450,
      "éļĬ": 3451,
      "åįł": 3452,
      "iÃ³": 3453,
      "Ġid": 3454,
      "dd": 3455,
      "æµİ": 3456,
      "æĳ": 3457,
      "çģ«": 3458,
      "context": 3459,
      "Ġutil": 3460,
      "bon": 3461,
      "å¡Ķ": 3462,
      "æ¡Ī": 3463,
      "ele": 3464,
      "--------------------------------": 3465,
      "gn": 3466,
      "Ġbegin": 3467,
      "âĢĿãĢĤ": 3468,
      "Ġtoget": 3469,
      "rc": 3470,
      "Name": 3471,
      "Ġtogether": 3472,
      "ä¹ĭä¸Ģ": 3473,
      "Ġ,": 3474,
      "Ġsimple": 3475,
      "Ġimplement": 3476,
      "ç»´": 3477,
      "æ¼¢": 3478,
      "AD": 3479,
      "rec": 3480,
      "Ġwind": 3481,
      "ĠEurope": 3482,
      "å¸«": 3483,
      "process": 3484,
      "çķ«": 3485,
      "Ġnames": 3486,
      "æĶ»": 3487,
      "ental": 3488,
      "æĪĲç«ĭ": 3489,
      "Ġways": 3490,
      "Ġresearc": 3491,
      "Ġtrue": 3492,
      "å»£": 3493,
      "prop": 3494,
      "leep": 3495,
      "Ġexpected": 3496,
      "Ġexperience": 3497,
      "è¿ĺ": 3498,
      "Ġey": 3499,
      "rodu": 3500,
      "æ´Ľ": 3501,
      "æ¾": 3502,
      "Ġuseful": 3503,
      "Ġfail": 3504,
      "åĲī": 3505,
      "åįļ": 3506,
      "Ġentre": 3507,
      "asing": 3508,
      "po": 3509,
      "ling": 3510,
      "ements": 3511,
      "Ġeducation": 3512,
      "doc": 3513,
      "del": 3514,
      "Ġformat": 3515,
      "Ġalready": 3516,
      "Ġneg": 3517,
      "çĬ": 3518,
      "Ġunit": 3519,
      "Ġwhy": 3520,
      "Ġsubject": 3521,
      "éĹ¨": 3522,
      "amin": 3523,
      "Ġfuture": 3524,
      "åĽ¾": 3525,
      "side": 3526,
      "Ġleast": 3527,
      "inary": 3528,
      "model": 3529,
      "obj": 3530,
      "çĶ°": 3531,
      "Ãºn": 3532,
      "Ġtri": 3533,
      "Ġpopulation": 3534,
      "etic": 3535,
      "aring": 3536,
      "æĪĲçĤº": 3537,
      "osed": 3538,
      "èĻķ": 3539,
      "Ġacross": 3540,
      "åľĺ": 3541,
      "Ġmot": 3542,
      "Ġdifficult": 3543,
      "Ġmachine": 3544,
      "NE": 3545,
      "Ġsingle": 3546,
      "Ġcomplex": 3547,
      "aken": 3548,
      "Ġconcept": 3549,
      "input": 3550,
      "å·±": 3551,
      "ĠChrist": 3552,
      "Ġinstance": 3553,
      "Ġworking": 3554,
      "ãĢįï¼Į": 3555,
      "eds": 3556,
      "split": 3557,
      "Ġexplain": 3558,
      "Ġconc": 3559,
      "trans": 3560,
      "Ġfamil": 3561,
      "Ġload": 3562,
      "éĨ": 3563,
      "iple": 3564,
      "Ġtarget": 3565,
      "Ġrate": 3566,
      "over": 3567,
      "åĭĴ": 3568,
      "Ġcommand": 3569,
      "ĠJohn": 3570,
      "Ġchall": 3571,
      "amed": 3572,
      "Ġconsum": 3573,
      "ä¿Ħ": 3574,
      "éľĢ": 3575,
      "ĠAm": 3576,
      "reed": 3577,
      "Ġcy": 3578,
      "ledge": 3579,
      "Ġbreak": 3580,
      "è¡ĮæĶ¿": 3581,
      "Ġchem": 3582,
      "æľ¨": 3583,
      "è³ª": 3584,
      "åĪĻ": 3585,
      "Ġprob": 3586,
      "Ġexpress": 3587,
      "ĠIntern": 3588,
      "å°Ħ": 3589,
      "Ġseg": 3590,
      "Ġworks": 3591,
      "ĠWhile": 3592,
      "éĴ": 3593,
      "ĠGr": 3594,
      "Ġcrit": 3595,
      "encia": 3596,
      "ĠFl": 3597,
      "ĠMar": 3598,
      "Ġwhether": 3599,
      "ãĢĭï¼Į": 3600,
      "Un": 3601,
      "Ġplants": 3602,
      "ula": 3603,
      "method": 3604,
      "Ġhistor": 3605,
      "iem": 3606,
      "Ġ',": 3607,
      "Ġdiv": 3608,
      "aciones": 3609,
      "ç¶Ń": 3610,
      "ites": 3611,
      "Ġside": 3612,
      "Ġmakes": 3613,
      "èĪª": 3614,
      "Ġargs": 3615,
      "ĠAb": 3616,
      "Ġrole": 3617,
      "å¥¥": 3618,
      "ambi": 3619,
      "parse": 3620,
      "æ°Ķ": 3621,
      "é£Ł": 3622,
      "oph": 3623,
      "é»ŀ": 3624,
      "ĠWorld": 3625,
      "ee": 3626,
      "Ġkind": 3627,
      "åľĸ": 3628,
      "ras": 3629,
      "Ġreason": 3630,
      "abase": 3631,
      "Ġresources": 3632,
      "çĪ¶": 3633,
      "core": 3634,
      "ĠLos": 3635,
      "å¿Ĺ": 3636,
      "point": 3637,
      "ux": 3638,
      "å©": 3639,
      "alf": 3640,
      "èĲ¬": 3641,
      "Ġservice": 3642,
      "èĢģ": 3643,
      "è©²": 3644,
      "ĠMy": 3645,
      "âĢĿï¼Į": 3646,
      "ĠFran": 3647,
      "Ġquestions": 3648,
      "client": 3649,
      "Ġstrong": 3650,
      "iddle": 3651,
      "æīį": 3652,
      "Ġtell": 3653,
      "idos": 3654,
      "aim": 3655,
      "Ġclear": 3656,
      "çıŃ": 3657,
      "HOUT": 3658,
      "Ġcat": 3659,
      "Ġrandom": 3660,
      "Ġbusiness": 3661,
      "ogle": 3662,
      "Ġalgorith": 3663,
      "éĺ³": 3664,
      "II": 3665,
      "Ġerror": 3666,
      "nal": 3667,
      "mission": 3668,
      "Ġcustom": 3669,
      "bsite": 3670,
      "error": 3671,
      "ILITY": 3672,
      "ĠWITHOUT": 3673,
      "çľŁ": 3674,
      "åľ°åĮº": 3675,
      "æĻ¯": 3676,
      "Ġpay": 3677,
      "Ġproducts": 3678,
      "Ġcentury": 3679,
      "let": 3680,
      "ension": 3681,
      "æ°£": 3682,
      "Ġnecess": 3683,
      "Ġteam": 3684,
      "xy": 3685,
      "Ġcommunity": 3686,
      "Ġreduce": 3687,
      "Ġdeath": 3688,
      "Ġyoung": 3689,
      "ĠFoundation": 3690,
      "Par": 3691,
      "Cont": 3692,
      "ott": 3693,
      "Ġexc": 3694,
      "Ġhigher": 3695,
      "oot": 3696,
      "apt": 3697,
      "unc": 3698,
      "Ġcountries": 3699,
      "åľĭå®¶": 3700,
      "è¦ĭ": 3701,
      "å¿µ": 3702,
      "egr": 3703,
      "ä»ĸçļĦ": 3704,
      "å¸Ń": 3705,
      "gs": 3706,
      "aching": 3707,
      "ql": 3708,
      "iqu": 3709,
      "Ġenough": 3710,
      "Ġrights": 3711,
      "().": 3712,
      "ĠEnglish": 3713,
      "Ġindic": 3714,
      "è´¨": 3715,
      "map": 3716,
      "PE": 3717,
      "ift": 3718,
      "atform": 3719,
      "Ġill": 3720,
      "Ġrele": 3721,
      "è¬": 3722,
      "æĬķ": 3723,
      "Ġweight": 3724,
      "å·¥ä½ľ": 3725,
      "idth": 3726,
      "Ġlower": 3727,
      "æīĵ": 3728,
      "Ġteac": 3729,
      "part": 3730,
      "'.": 3731,
      "ools": 3732,
      "oney": 3733,
      "empt": 3734,
      "Ġcases": 3735,
      "éĿĴ": 3736,
      "Ġnut": 3737,
      "Ġbelow": 3738,
      "æ¢Ŀ": 3739,
      "ä½Ľ": 3740,
      "æŀĦ": 3741,
      "la": 3742,
      "ĠĠĠĠĠĠĠĠĠĠĠĠĠĠĠĠĠĠĠĠĠĠĠĠĠĠĠĠ": 3743,
      "output": 3744,
      "CL": 3745,
      "Ġsymptoms": 3746,
      "ĠStud": 3747,
      "Ġuses": 3748,
      "Str": 3749,
      "Ġbig": 3750,
      "Ġrecord": 3751,
      "Ġloss": 3752,
      "Ġimplied": 3753,
      "earch": 3754,
      "ening": 3755,
      "ĠGod": 3756,
      "ĠNot": 3757,
      "Ġarch": 3758,
      "Ġrecogn": 3759,
      "åľº": 3760,
      "åĺ": 3761,
      "Ġsite": 3762,
      "æĦŁ": 3763,
      "Ġsitu": 3764,
      "éĺŁ": 3765,
      "Ġmethods": 3766,
      "éĬ": 3767,
      "}-": 3768,
      "éļĽ": 3769,
      "Ġtests": 3770,
      "uest": 3771,
      ");": 3772,
      "Ġprotect": 3773,
      "istic": 3774,
      "book": 3775,
      "Ġtyp": 3776,
      "è¨ĺ": 3777,
      "ÃŃs": 3778,
      "é»ĳ": 3779,
      "å»ºç«ĭ": 3780,
      "Ġmiss": 3781,
      "Ġrelations": 3782,
      "nder": 3783,
      "Ġ]": 3784,
      "ĠHist": 3785,
      "Ġsun": 3786,
      "Ġdam": 3787,
      "å¡ŀ": 3788,
      "èĸ": 3789,
      "Ġphysical": 3790,
      "resh": 3791,
      "å¤±": 3792,
      "ocol": 3793,
      "IG": 3794,
      "sup": 3795,
      "env": 3796,
      "ming": 3797,
      "çĵ¦": 3798,
      "licenses": 3799,
      "Ġextern": 3800,
      "xim": 3801,
      "atory": 3802,
      "éĸĭå§ĭ": 3803,
      "ä¾Ľ": 3804,
      "lex": 3805,
      "'])": 3806,
      "ĠShe": 3807,
      "pack": 3808,
      "clus": 3809,
      "ĠAfter": 3810,
      "hern": 3811,
      "è¶³": 3812,
      "ambiÃ©n": 3813,
      "ä»½": 3814,
      "Ġaway": 3815,
      "ounds": 3816,
      "ibility": 3817,
      "array": 3818,
      "ĠPython": 3819,
      "Ġrelated": 3820,
      "gress": 3821,
      "ĠFOR": 3822,
      "éĲ": 3823,
      "ociety": 3824,
      "ä»į": 3825,
      "aries": 3826,
      "ä¸ĬçļĦ": 3827,
      "ss": 3828,
      "Ġreceived": 3829,
      "æŃ¥": 3830,
      "Ġresearchers": 3831,
      "èĩªå·±": 3832,
      "ĠAfric": 3833,
      "cho": 3834,
      "æĤ": 3835,
      "ĠBrit": 3836,
      "Ġthought": 3837,
      "ä¸Ńå¿ĥ": 3838,
      "ä½ı": 3839,
      "message": 3840,
      "Ġscience": 3841,
      "Ġtraining": 3842,
      "åĸ®": 3843,
      "Ġ!=": 3844,
      "æ¸¸": 3845,
      "ä½İ": 3846,
      "ĠNo": 3847,
      "åº·": 3848,
      "å´": 3849,
      "Ġgroups": 3850,
      "Ġdone": 3851,
      "æĴŃ": 3852,
      "Set": 3853,
      "å®¤": 3854,
      ".)": 3855,
      "ivity": 3856,
      "Ġobtain": 3857,
      "âĢ¦": 3858,
      "Ġstory": 3859,
      "Ġassociated": 3860,
      "è¯¥": 3861,
      "çĽŁ": 3862,
      "æĬĬ": 3863,
      "wards": 3864,
      "ym": 3865,
      "Ġclimate": 3866,
      "æ°ı": 3867,
      "pen": 3868,
      "Ġelement": 3869,
      "Ġhom": 3870,
      "oken": 3871,
      "Ġdiscuss": 3872,
      "Ġsix": 3873,
      "verse": 3874,
      "uck": 3875,
      "Ġobserv": 3876,
      "æīĺ": 3877,
      "éĢī": 3878,
      "auth": 3879,
      "ene": 3880,
      "Ġsepar": 3881,
      "\"),": 3882,
      "Ġnode": 3883,
      "Ġpolit": 3884,
      "Ġweek": 3885,
      "èĪī": 3886,
      "éĻĲ": 3887,
      "wh": 3888,
      "Ġ>>": 3889,
      "æĵļ": 3890,
      "èĩºçģ£": 3891,
      "Ġjob": 3892,
      "è§Ģ": 3893,
      "Ġlat": 3894,
      "ĠChe": 3895,
      "Ġfall": 3896,
      "ping": 3897,
      "'):": 3898,
      "Ġwrite": 3899,
      "Ġliter": 3900,
      "Ġwar": 3901,
      "Ġinflu": 3902,
      "Ġcorrect": 3903,
      "can": 3904,
      "Ġhaving": 3905,
      "Ġansw": 3906,
      "Ġeffects": 3907,
      "istance": 3908,
      "çĿ£": 3909,
      "çį²": 3910,
      "ison": 3911,
      "Ġskills": 3912,
      "open": 3913,
      "èĲ½": 3914,
      "Ġlogging": 3915,
      "æĽ¼": 3916,
      "éĻħ": 3917,
      "rors": 3918,
      "åŃ¦éĻ¢": 3919,
      "Ġengine": 3920,
      "èµĦ": 3921,
      "æ´ĭ": 3922,
      "æī¿": 3923,
      "future": 3924,
      "emplate": 3925,
      "Ġblack": 3926,
      "ĠNe": 3927,
      "File": 3928,
      "ç«ł": 3929,
      "Ġvalid": 3930,
      "HT": 3931,
      "ameters": 3932,
      "è¿°": 3933,
      "äºī": 3934,
      "bit": 3935,
      "Ġdeg": 3936,
      "Ġphot": 3937,
      "å®ĭ": 3938,
      "Ġach": 3939,
      "Ġespecially": 3940,
      "æĸ½": 3941,
      "Ġitem": 3942,
      "Ġrecomm": 3943,
      "imal": 3944,
      "raft": 3945,
      "Ġaccording": 3946,
      "çįİ": 3947,
      "icode": 3948,
      "éĻį": 3949,
      "çĪŃ": 3950,
      "rid": 3951,
      "æĪĲä¸º": 3952,
      "Ġ->": 3953,
      "å¸Ī": 3954,
      "è¼ĥ": 3955,
      "Ġweb": 3956,
      "åĮĹäº¬": 3957,
      "Ġneeded": 3958,
      "Ġparticip": 3959,
      "Ġnever": 3960,
      "ãĢįãĢĤ": 3961,
      "elves": 3962,
      "'re": 3963,
      "èĪ¬": 3964,
      "Ġann": 3965,
      "å¹´ä»£": 3966,
      "æİĴ": 3967,
      "ĠInt": 3968,
      "Ġnumbers": 3969,
      "amm": 3970,
      "ections": 3971,
      "ãĢĭï¼Ī": 3972,
      "ĠAcc": 3973,
      "åº§": 3974,
      "Ġactivities": 3975,
      "::": 3976,
      "éĩįè¦ģ": 3977,
      "Ġestabl": 3978,
      "å¥¹": 3979,
      "Ġmaterials": 3980,
      "ising": 3981,
      "çīĻ": 3982,
      "aced": 3983,
      "ABILITY": 3984,
      "Ġactivity": 3985,
      "Ġcontinue": 3986,
      "åĪ«": 3987,
      "ĠPol": 3988,
      "Ġsearch": 3989,
      "ART": 3990,
      "fficient": 3991,
      "ĠAss": 3992,
      "hand": 3993,
      "acc": 3994,
      "Ġsuccessful": 3995,
      "Ġexec": 3996,
      "ager": 3997,
      "Ar": 3998,
      "TestCase": 3999,
      "Ġrev": 4000,
      "ĠHealth": 4001,
      "Ġclean": 4002,
      "åŁĥ": 4003,
      "pri": 4004,
      "eting": 4005,
      "-{": 4006,
      "ä¸Ńèı¯": 4007,
      "åĢ¼": 4008,
      "ç§»": 4009,
      "Ġcompon": 4010,
      "Ġcity": 4011,
      "ese": 4012,
      "è£½": 4013,
      "çĿĢ": 4014,
      "ender": 4015,
      "ĠPer": 4016,
      "åĬ©": 4017,
      "è¨±": 4018,
      "igu": 4019,
      "types": 4020,
      "æĿĳ": 4021,
      "item": 4022,
      "off": 4023,
      "Ġpued": 4024,
      "ä¾Ŀ": 4025,
      "Ġreally": 4026,
      "struction": 4027,
      "Ġnormal": 4028,
      "PI": 4029,
      "sg": 4030,
      "çĴ": 4031,
      "åī¯": 4032,
      "ä¾¿": 4033,
      "Ġbuilding": 4034,
      "åĵ¥": 4035,
      "é½": 4036,
      "Ġbat": 4037,
      "ä½ľåĵģ": 4038,
      "pid": 4039,
      "enn": 4040,
      "Ġgoing": 4041,
      "Ġprovides": 4042,
      "Ġparts": 4043,
      "å¼Ģå§ĭ": 4044,
      "Ġoriginal": 4045,
      "ismo": 4046,
      "Ġpredict": 4047,
      "å¹´éĢĿä¸ĸ": 4048,
      "åįķ": 4049,
      "Ġstructure": 4050,
      "Ġquestion": 4051,
      "abs": 4052,
      "Ġlot": 4053,
      "åīµ": 4054,
      "é¢¨": 4055,
      "åĲ«": 4056,
      "Ġconsid": 4057,
      "å·Ŀ": 4058,
      "Ġremain": 4059,
      "like": 4060,
      "èĴĻ": 4061,
      "ç²¾": 4062,
      "Ġobjects": 4063,
      "Ġstudent": 4064,
      "den": 4065,
      "Ġonce": 4066,
      "su": 4067,
      "Ġquality": 4068,
      "æ²Ĵ": 4069,
      "å°Ī": 4070,
      "æĿ¡": 4071,
      "oman": 4072,
      "Ġdevice": 4073,
      "ivil": 4074,
      "Ġground": 4075,
      "ĠEarth": 4076,
      "overed": 4077,
      "Ġpa": 4078,
      "Ġfurther": 4079,
      "with": 4080,
      "Ġcombin": 4081,
      "å¤§çļĦ": 4082,
      "CE": 4083,
      "ç¯Ģ": 4084,
      "node": 4085,
      "Ġpie": 4086,
      "Ġfeed": 4087,
      "ĠFree": 4088,
      "Ġindex": 4089,
      "<<": 4090,
      "Ġhouse": 4091,
      "enc": 4092,
      "Ġpopular": 4093,
      "Ġproduce": 4094,
      "Ġdate": 4095,
      "Ġknowledge": 4096,
      "æŃ£å¼ı": 4097,
      "Ġfig": 4098,
      "éĽ·": 4099,
      "ista": 4100,
      "Ġhope": 4101,
      "DI": 4102,
      "params": 4103,
      "æ·±": 4104,
      "Ġaddition": 4105,
      "Ġfive": 4106,
      "Ġder": 4107,
      "åİĨåı²": 4108,
      "Ġstudies": 4109,
      "ĠDis": 4110,
      "åŁİå¸Ĥ": 4111,
      "æŃ¢": 4112,
      "å®¢": 4113,
      "å·¥ç¨ĭ": 4114,
      "ns": 4115,
      "sequ": 4116,
      "éĻ¸": 4117,
      "umb": 4118,
      "åºı": 4119,
      "ä¸ĢäºĽ": 4120,
      "ief": 4121,
      "æī¹": 4122,
      "TE": 4123,
      "ersion": 4124,
      "Ġfinal": 4125,
      "ĠWar": 4126,
      "Ġcut": 4127,
      "TP": 4128,
      "Ġdifference": 4129,
      "Ġidentify": 4130,
      "Ġseen": 4131,
      "tim": 4132,
      "Ġmind": 4133,
      "Ġfrequ": 4134,
      "Ġbuilt": 4135,
      "Ġcannot": 4136,
      "Ġ```": 4137,
      "Ġhealthy": 4138,
      "Ġarray": 4139,
      "Ġhowever": 4140,
      "icas": 4141,
      "ente": 4142,
      "It": 4143,
      "Ġcomputer": 4144,
      "Ġpatients": 4145,
      "orage": 4146,
      "å¼ł": 4147,
      "Ġability": 4148,
      "Ġarticle": 4149,
      "å¤ı": 4150,
      "æł¸": 4151,
      "Ġlength": 4152,
      "Ġmodify": 4153,
      "å§Ķåĳĺ": 4154,
      "Ġmodern": 4155,
      "å¹´çļĦ": 4156,
      "Ġemploy": 4157,
      "ç´ļ": 4158,
      "Ġmass": 4159,
      "çķĻ": 4160,
      "åľ°åįĢ": 4161,
      "We": 4162,
      "Ġbecame": 4163,
      "èĭ±åľĭ": 4164,
      "'))": 4165,
      "Ġesp": 4166,
      "curity": 4167,
      "Ġgas": 4168,
      "quest": 4169,
      "eta": 4170,
      "aging": 4171,
      "Ġmedical": 4172,
      "tx": 4173,
      "å¸¶": 4174,
      "portun": 4175,
      "åĢĻ": 4176,
      "Ġgrowth": 4177,
      "æīĢæľī": 4178,
      "imum": 4179,
      "çĻ»": 4180,
      "update": 4181,
      "Ġnom": 4182,
      "Ġintrodu": 4183,
      "ä¸ĸç´Ģ": 4184,
      "Ġfunctions": 4185,
      "æĬ¥": 4186,
      "ĠAust": 4187,
      "Ġhours": 4188,
      "content": 4189,
      "Ġinstall": 4190,
      "igr": 4191,
      "Ġforms": 4192,
      "</": 4193,
      "Ġfri": 4194,
      "Ġactually": 4195,
      "label": 4196,
      "Ġissues": 4197,
      "çľĭ": 4198,
      "ĠUs": 4199,
      "icos": 4200,
      "Ġ[],": 4201,
      "Ġprote": 4202,
      "Ġproduction": 4203,
      "lam": 4204,
      "ĠåıĤ": 4205,
      "åĬĩ": 4206,
      "ĠYour": 4207,
      "TH": 4208,
      "ai": 4209,
      "Ġsens": 4210,
      "ĠGerm": 4211,
      "è§ģ": 4212,
      "Ġpaper": 4213,
      "eros": 4214,
      "Ġot": 4215,
      "åįĥ": 4216,
      "LO": 4217,
      "Ġsurface": 4218,
      "æ³¨": 4219,
      "aged": 4220,
      "Ġdeveloped": 4221,
      "gar": 4222,
      "Ġoil": 4223,
      "ĠUse": 4224,
      "ken": 4225,
      "ĠCON": 4226,
      "Ġtree": 4227,
      "Ġisinstance": 4228,
      "å¤į": 4229,
      "Ġetc": 4230,
      "Ġcoding": 4231,
      "ĠAct": 4232,
      "va": 4233,
      "ĠMay": 4234,
      "ĠRed": 4235,
      "Ġanimals": 4236,
      "zh": 4237,
      "åŃ£": 4238,
      "Ġbar": 4239,
      "Ġpriv": 4240,
      "Ġregular": 4241,
      "mark": 4242,
      "Ġavoid": 4243,
      "urs": 4244,
      "alu": 4245,
      "Ġmultiple": 4246,
      "Ġensure": 4247,
      "Ġconsidered": 4248,
      "Ġadult": 4249,
      "izer": 4250,
      "æŃĲ": 4251,
      "Ġeff": 4252,
      "Ġquick": 4253,
      "éĤĦ": 4254,
      "erved": 4255,
      "iction": 4256,
      "Ġanalysis": 4257,
      "æłĩ": 4258,
      "ä¾ĭå¦Ĥ": 4259,
      "lying": 4260,
      "Ġrelationship": 4261,
      "å¿ħ": 4262,
      "è§Ħ": 4263,
      "åĪĴ": 4264,
      "Ġunique": 4265,
      "Ġ###": 4266,
      "éķĩ": 4267,
      "Ġlive": 4268,
      "ç»ıæµİ": 4269,
      "ç¥ĸ": 4270,
      "Ġserver": 4271,
      "Ġfactors": 4272,
      "Ġactual": 4273,
      "cr": 4274,
      "äº¡": 4275,
      "Ġanaly": 4276,
      "Ġbehavior": 4277,
      "Ġfat": 4278,
      "Ġcamp": 4279,
      "based": 4280,
      "erson": 4281,
      "åł±": 4282,
      "response": 4283,
      "æĵĬ": 4284,
      "Ġmatch": 4285,
      "Ġing": 4286,
      "Ġidea": 4287,
      "net": 4288,
      "Ġgreen": 4289,
      "'m": 4290,
      "main": 4291,
      "Ġdog": 4292,
      "Ġregion": 4293,
      "IES": 4294,
      "çº³": 4295,
      "Ġmedic": 4296,
      "åĳĬ": 4297,
      "Ġskin": 4298,
      "è½ī": 4299,
      "ä¸ĵ": 4300,
      "endo": 4301,
      "å¯Į": 4302,
      "åģļ": 4303,
      "Ġunderstanding": 4304,
      "Ġtensor": 4305,
      "abet": 4306,
      "ca": 4307,
      "Ġemb": 4308,
      "èĹı": 4309,
      "Ġwhite": 4310,
      "å²Ľ": 4311,
      "Ġpressure": 4312,
      "æķĪ": 4313,
      "èªįçĤº": 4314,
      "Ġstrateg": 4315,
      "Ġcondition": 4316,
      "irth": 4317,
      "æ§ĭ": 4318,
      "éĤ¦": 4319,
      "é¡Į": 4320,
      "Ġdiet": 4321,
      "iet": 4322,
      "Ġstates": 4323,
      "Ġcontains": 4324,
      "shape": 4325,
      "fort": 4326,
      "Ġdrug": 4327,
      "List": 4328,
      "Ġrather": 4329,
      "ley": 4330,
      "hol": 4331,
      "ĠDep": 4332,
      "ival": 4333,
      "erties": 4334,
      "ached": 4335,
      "dev": 4336,
      "éĽ¢": 4337,
      "éĽ»å½±": 4338,
      "active": 4339,
      "ç°": 4340,
      "options": 4341,
      "éģĭåĭķ": 4342,
      "Ġdecl": 4343,
      "å¥§": 4344,
      "æ¤": 4345,
      "Ġbill": 4346,
      "Ġcarbon": 4347,
      "Ġwebsite": 4348,
      "æĦĽ": 4349,
      "ç®¡çĲĨ": 4350,
      "æĺ¥": 4351,
      "ĠAnt": 4352,
      "Ġprevious": 4353,
      "å§Ĩ": 4354,
      "Ġdeep": 4355,
      "Ġhold": 4356,
      "ä¸ĢèĪ¬": 4357,
      "åľĴ": 4358,
      "Ġconcern": 4359,
      "ameter": 4360,
      "Ġsort": 4361,
      "èĺĩ": 4362,
      "åŃ¸å®¶": 4363,
      "DO": 4364,
      "ĠAmerica": 4365,
      "éħį": 4366,
      "Ġobj": 4367,
      "Â»": 4368,
      "Ġtemperature": 4369,
      "Ġmedia": 4370,
      "Ġsaf": 4371,
      "Ġtasks": 4372,
      "æ£®": 4373,
      "ãĥ": 4374,
      "å¥ĩ": 4375,
      "Ġpersonal": 4376,
      "Ġvideo": 4377,
      "æĬĹ": 4378,
      "search": 4379,
      "Ġvisit": 4380,
      "Ġrelig": 4381,
      "itch": 4382,
      "Ġeffort": 4383,
      "Ġexperien": 4384,
      "vo": 4385,
      "Ġmanagement": 4386,
      "Ġeffective": 4387,
      "ä¸ģ": 4388,
      "è¡¨ç¤º": 4389,
      "ENT": 4390,
      "Ġallows": 4391,
      "Ġsuff": 4392,
      "ung": 4393,
      "Ġinstead": 4394,
      "ĠEd": 4395,
      "æ±º": 4396,
      "fect": 4397,
      "Ġfish": 4398,
      "ato": 4399,
      "Key": 4400,
      "é¾į": 4401,
      "Ġsoil": 4402,
      "Ġevents": 4403,
      "Ġpassword": 4404,
      "Ġinitial": 4405,
      "æĺ¯ä¸Ģ": 4406,
      "å¯Ł": 4407,
      "æĲ": 4408,
      "Ġincludes": 4409,
      "ĠGu": 4410,
      "Ġstress": 4411,
      "ares": 4412,
      "Ġfeatures": 4413,
      "build": 4414,
      "éĺ²": 4415,
      "Ġdos": 4416,
      "ĠNorth": 4417,
      "åĩºçīĪ": 4418,
      "Ġcontribut": 4419,
      "Ġorigin": 4420,
      "æ¨Ļ": 4421,
      "pose": 4422,
      "uary": 4423,
      "æ²¡": 4424,
      "åıĭ": 4425,
      "Ġstop": 4426,
      "server": 4427,
      "urch": 4428,
      "ournal": 4429,
      "oll": 4430,
      "cular": 4431,
      "comes": 4432,
      "Ġonline": 4433,
      "iance": 4434,
      "Ġliving": 4435,
      "èİ·": 4436,
      "Ġexerc": 4437,
      "Ġroot": 4438,
      "izing": 4439,
      "Ġtaken": 4440,
      "Ġcomes": 4441,
      "Ġadded": 4442,
      "Ġstatus": 4443,
      "è¦ª": 4444,
      "ç´¢": 4445,
      "ĠMany": 4446,
      "Ġ``": 4447,
      "year": 4448,
      "ĠMod": 4449,
      "Ġjson": 4450,
      "bar": 4451,
      "aff": 4452,
      "åĨ³": 4453,
      "è½¦": 4454,
      "ground": 4455,
      "æ¼Ķåĵ¡": 4456,
      "ĠReg": 4457,
      "Ġreading": 4458,
      "nown": 4459,
      "Ġopportun": 4460,
      "å¸¦": 4461,
      "æ³°": 4462,
      "Ġhalf": 4463,
      "ĠJap": 4464,
      "AG": 4465,
      "Ġcontact": 4466,
      "ĠLI": 4467,
      "Ġheat": 4468,
      "åĩĨ": 4469,
      "æİ§": 4470,
      "Ġmembers": 4471,
      "ĠFe": 4472,
      "Ġmeasure": 4473,
      "ĠÂ«": 4474,
      "Ġ>>>": 4475,
      "uz": 4476,
      "Ġextra": 4477,
      "cret": 4478,
      "æ¶Ī": 4479,
      "éģĬ": 4480,
      "åħ±åĴĮåĽ½": 4481,
      "US": 4482,
      "ĠSc": 4483,
      "ĠSouth": 4484,
      "Ġchemical": 4485,
      "éĻ½": 4486,
      "æİĪ": 4487,
      "files": 4488,
      "sych": 4489,
      "Ġsat": 4490,
      "ĠHT": 4491,
      "Ġdoesn": 4492,
      "äººçļĦ": 4493,
      "aches": 4494,
      "è³½": 4495,
      "page": 4496,
      "Ġemail": 4497,
      "é¢ĺ": 4498,
      "ĠaÃ±o": 4499,
      "Ġpython": 4500,
      "FT": 4501,
      "Ġentire": 4502,
      "Ġattack": 4503,
      "Ġparents": 4504,
      "èģĸ": 4505,
      "Ġwhole": 4506,
      "Ġutf": 4507,
      "aba": 4508,
      "ä¸»ä¹ī": 4509,
      "eger": 4510,
      "jo": 4511,
      "unit": 4512,
      "çħ§": 4513,
      "cient": 4514,
      "Base": 4515,
      "gener": 4516,
      "ä¸ĸçºª": 4517,
      "ps": 4518,
      "iles": 4519,
      "Ġincreased": 4520,
      "æ¬§": 4521,
      "((": 4522,
      "artment": 4523,
      "Ġlines": 4524,
      "Ġmeaning": 4525,
      "Ġnecessary": 4526,
      "åĽ¢": 4527,
      "arning": 4528,
      "Ġsettings": 4529,
      "Ġminutes": 4530,
      "æŃ·åı²": 4531,
      "èĬĤ": 4532,
      "é¸": 4533,
      "éĹ®": 4534,
      "Im": 4535,
      "å¼·": 4536,
      "Ġstandard": 4537,
      "ocket": 4538,
      "åłĤ": 4539,
      "Ġwritten": 4540,
      "Ġservices": 4541,
      "éłŃ": 4542,
      "ä¹Łæĺ¯": 4543,
      "objects": 4544,
      "Ġthough": 4545,
      "minist": 4546,
      "chan": 4547,
      "ĠInc": 4548,
      "ç¤¾ä¼ļ": 4549,
      "ç½ĳ": 4550,
      "Data": 4551,
      "ges": 4552,
      "Ġci": 4553,
      "Ġmonths": 4554,
      "En": 4555,
      "oon": 4556,
      "ĠPe": 4557,
      "æģ¯": 4558,
      "Ġprofess": 4559,
      "Ġprincip": 4560,
      "names": 4561,
      "åĲĽ": 4562,
      "åºķ": 4563,
      "illed": 4564,
      "arse": 4565,
      "Ġsleep": 4566,
      "dec": 4567,
      "utions": 4568,
      "Ġapproach": 4569,
      "Ġaverage": 4570,
      "å°ģ": 4571,
      "ram": 4572,
      "ĠtambiÃ©n": 4573,
      "Ġitself": 4574,
      "link": 4575,
      "bug": 4576,
      "ENSE": 4577,
      "éİ": 4578,
      "Ġnature": 4579,
      "ney": 4580,
      "ĠWest": 4581,
      "é»ĥ": 4582,
      "è¿Ľè¡Į": 4583,
      "Ġsob": 4584,
      "Ġevidence": 4585,
      "ç¨±çĤº": 4586,
      "medi": 4587,
      "ĠOther": 4588,
      "oo": 4589,
      "une": 4590,
      "ius": 4591,
      "ĠMe": 4592,
      "uff": 4593,
      "Ġremov": 4594,
      "Ġextrem": 4595,
      "ä¸¹": 4596,
      "reate": 4597,
      "Ġnational": 4598,
      "å¹´åĩºçĶŁ": 4599,
      "Ġposition": 4600,
      "Ġconnection": 4601,
      "ICENSE": 4602,
      "Ġlabel": 4603,
      "light": 4604,
      "Ġparser": 4605,
      "Ġ[\"": 4606,
      "source": 4607,
      "Ġdisplay": 4608,
      "ector": 4609,
      "å¾®": 4610,
      "æ²Ĵæľī": 4611,
      "This": 4612,
      "Ġeasy": 4613,
      "filename": 4614,
      "astic": 4615,
      "Ġtakes": 4616,
      "Ġpoints": 4617,
      "hib": 4618,
      "Ġgrad": 4619,
      "Ġscientists": 4620,
      "Ġsn": 4621,
      "æľĽ": 4622,
      "image": 4623,
      "çĻ¼å±ķ": 4624,
      "ä¸Ńåįİ": 4625,
      "Ġpractice": 4626,
      "anced": 4627,
      "Ġclose": 4628,
      "missions": 4629,
      "èĹĿ": 4630,
      "items": 4631,
      "åĿ¦": 4632,
      "Ġtitle": 4633,
      "éĻĦ": 4634,
      "ls": 4635,
      "river": 4636,
      "è¦ı": 4637,
      "Ġforce": 4638,
      "èĶ": 4639,
      "ĠNow": 4640,
      "ä¹Ĳ": 4641,
      "ĠÃ": 4642,
      "åĽłçĤº": 4643,
      "Ġsqu": 4644,
      "osis": 4645,
      "istics": 4646,
      "iene": 4647,
      "éĲµ": 4648,
      "ĠMore": 4649,
      "ĠWARRANTIES": 4650,
      "çŃĸ": 4651,
      "ĠPart": 4652,
      "ä¼¼": 4653,
      "Ġec": 4654,
      "çķ¶æĻĤ": 4655,
      "Ġproper": 4656,
      "[:": 4657,
      "éĻ³": 4658,
      "Int": 4659,
      "rix": 4660,
      "ĠFr": 4661,
      "Ġrecent": 4662,
      "eter": 4663,
      "è§Ĩ": 4664,
      "msg": 4665,
      "çªģ": 4666,
      "find": 4667,
      "åŃ¦å®¶": 4668,
      "ĠĠĠĠĠĠĠĠĠĠĠ": 4669,
      "adem": 4670,
      "é¹": 4671,
      "Ġsources": 4672,
      "ĠCo": 4673,
      "down": 4674,
      "ĠState": 4675,
      "è®¤ä¸º": 4676,
      "Ġ##": 4677,
      "Ġpatterns": 4678,
      "au": 4679,
      "Ġalmost": 4680,
      "åįĩ": 4681,
      "mselves": 4682,
      "xml": 4683,
      "lines": 4684,
      "vey": 4685,
      "Ġgenerate": 4686,
      "èģ·": 4687,
      "éĵģ": 4688,
      "iew": 4689,
      "Ġhabit": 4690,
      "Ġconduct": 4691,
      "Ġsel": 4692,
      "ç¶²": 4693,
      "Ġcompany": 4694,
      "ĠMost": 4695,
      "Ġmaintain": 4696,
      "Ġfire": 4697,
      "Ġmor": 4698,
      "Ġtempl": 4699,
      "asta": 4700,
      "ged": 4701,
      "Ġmoney": 4702,
      "aron": 4703,
      "Ġbird": 4704,
      "Ġthemselves": 4705,
      "Ġtim": 4706,
      "table": 4707,
      "Ġwon": 4708,
      "Ġessential": 4709,
      "Ġbasic": 4710,
      "sl": 4711,
      "ened": 4712,
      "ĠSan": 4713,
      "Char": 4714,
      "åĨľ": 4715,
      "æ¿Ł": 4716,
      "ruct": 4717,
      "Ġenvironmental": 4718,
      "Ġtaking": 4719,
      "Ġintegr": 4720,
      "è°ĥ": 4721,
      "usr": 4722,
      "ugin": 4723,
      "Ġdefin": 4724,
      "Ġdb": 4725,
      "Ġthroughout": 4726,
      "mber": 4727,
      "Ġhelps": 4728,
      "ĠSchool": 4729,
      "èª¿": 4730,
      "ito": 4731,
      "ç£": 4732,
      "Ġshape": 4733,
      "ĠInstit": 4734,
      "level": 4735,
      "Ġdetermine": 4736,
      "Ġdesigned": 4737,
      "Ġcateg": 4738,
      "Ġbacter": 4739,
      "äººçī©": 4740,
      "block": 4741,
      "Up": 4742,
      "Ġindividuals": 4743,
      "Ġdiagn": 4744,
      "ĠReturn": 4745,
      "Ġden": 4746,
      "Ġcompl": 4747,
      "Ġindepend": 4748,
      "å®Ī": 4749,
      "Ġeconomic": 4750,
      "çĶ±æĸ¼": 4751,
      "Ġvariety": 4752,
      "å°±æĺ¯": 4753,
      "æ°ĳåľĭ": 4754,
      "åŃĺåľ¨": 4755,
      "ĠAND": 4756,
      "elling": 4757,
      "åķı": 4758,
      "ĠRep": 4759,
      "pu": 4760,
      "çĳŀ": 4761,
      "Ġmusic": 4762,
      "Ġcauses": 4763,
      "Ġ},": 4764,
      "amework": 4765,
      "RA": 4766,
      "å½¢æĪĲ": 4767,
      "åħ¨åĽ½": 4768,
      "å¯«": 4769,
      "description": 4770,
      "root": 4771,
      "ama": 4772,
      "æĻĤæľŁ": 4773,
      "Ġposs": 4774,
      "vere": 4775,
      "Ġlonger": 4776,
      "Ġsust": 4777,
      "é»Ħ": 4778,
      "rs": 4779,
      "Model": 4780,
      "èĪĪ": 4781,
      "Ġtax": 4782,
      "actions": 4783,
      "avor": 4784,
      "Not": 4785,
      "mail": 4786,
      "lay": 4787,
      "éĻĨ": 4788,
      "ç´į": 4789,
      "ãĢĭãĢģ": 4790,
      "ucle": 4791,
      "Ġprior": 4792,
      "Ġcame": 4793,
      "Ġplease": 4794,
      "Ġrefer": 4795,
      "ambda": 4796,
      "Ġmatter": 4797,
      "Ġappear": 4798,
      "æģ©": 4799,
      "Ġelements": 4800,
      "Ġimages": 4801,
      "spec": 4802,
      "æ°ĳæĹı": 4803,
      "FI": 4804,
      "ĠAc": 4805,
      "åĪĽ": 4806,
      "String": 4807,
      "Ġveget": 4808,
      "ĠaÃ±os": 4809,
      "Ġmicro": 4810,
      "ĠTO": 4811,
      "ĠHis": 4812,
      "ava": 4813,
      "çį¨": 4814,
      "è¿ª": 4815,
      "Ġtransl": 4816,
      "Ġcolumn": 4817,
      "Ġpositive": 4818,
      "Ġincreasing": 4819,
      "ried": 4820,
      "åıĳå±ķ": 4821,
      "Ġlocation": 4822,
      "ua": 4823,
      "fix": 4824,
      "upt": 4825,
      "lin": 4826,
      "éĢļå¸¸": 4827,
      "Ġbit": 4828,
      "posed": 4829,
      "Ġdepend": 4830,
      "Ġcomplete": 4831,
      "Ġmap": 4832,
      "ĠOf": 4833,
      "Ġtools": 4834,
      "iques": 4835,
      "Ġyet": 4836,
      "ĠĠĠĠĠĠĠĠĠĠĠĠĠĠ": 4837,
      "ĠResearch": 4838,
      "Ġtrack": 4839,
      "na": 4840,
      "aily": 4841,
      "aly": 4842,
      "ĠSup": 4843,
      "filter": 4844,
      "istry": 4845,
      "Ġ...": 4846,
      "Ġperformance": 4847,
      "Ġsense": 4848,
      "Ġcaused": 4849,
      "sk": 4850,
      "Ġ####": 4851,
      "================================": 4852,
      "ĠQu": 4853,
      "éĢļè¿ĩ": 4854,
      "èĵ": 4855,
      "Ġbenefits": 4856,
      "å¾ģ": 4857,
      "Ġshows": 4858,
      "çł´": 4859,
      "NESS": 4860,
      "Ġresource": 4861,
      "equal": 4862,
      "oad": 4863,
      "uple": 4864,
      "Ġ(\"": 4865,
      "oma": 4866,
      "ä½Ĩæĺ¯": 4867,
      "conf": 4868,
      "éĦī": 4869,
      "Al": 4870,
      "Ġeat": 4871,
      "oles": 4872,
      "Ġsymbol": 4873,
      "Ġbal": 4874,
      "èĩªçĶ±": 4875,
      "foo": 4876,
      "Ġsample": 4877,
      "Ġseries": 4878,
      "è¾ĥ": 4879,
      "cias": 4880,
      "Ġlooking": 4881,
      "æ²¡æľī": 4882,
      "Ġslow": 4883,
      "Ġclos": 4884,
      "ç¦»": 4885,
      "ĠMER": 4886,
      "Ġeste": 4887,
      "ensive": 4888,
      "ban": 4889,
      "éĥ¡": 4890,
      "Ġadditional": 4891,
      "wise": 4892,
      "Ġrow": 4893,
      "æľ«": 4894,
      "Ġsequ": 4895,
      "To": 4896,
      "ounter": 4897,
      "ailed": 4898,
      "erous": 4899,
      "Ġdraw": 4900,
      "ĠPART": 4901,
      "ĠFIT": 4902,
      "çºĮ": 4903,
      "IP": 4904,
      "èĭ¥": 4905,
      "parent": 4906,
      "å·¦": 4907,
      "ĠVal": 4908,
      "ĠÃ¡": 4909,
      "Ġinj": 4910,
      "ATE": 4911,
      "erve": 4912,
      "Ġtip": 4913,
      "è©ŀ": 4914,
      "known": 4915,
      "è§Ĥ": 4916,
      "ĠSpe": 4917,
      "Ġaccept": 4918,
      "ha": 4919,
      "Ġsea": 4920,
      "ĠJapan": 4921,
      "æĹ¶æľŁ": 4922,
      "è®¸": 4923,
      "èģ²": 4924,
      "Ġever": 4925,
      "idget": 4926,
      "Ġautom": 4927,
      "rapy": 4928,
      "arge": 4929,
      "æ°¸": 4930,
      "Ġchalleng": 4931,
      "duc": 4932,
      "keys": 4933,
      "ĠChina": 4934,
      "è¡Ľ": 4935,
      "rency": 4936,
      "ULAR": 4937,
      "åħ¬éĩĮ": 4938,
      "Ġyield": 4939,
      "Ġclient": 4940,
      "CHANT": 4941,
      "ĠMin": 4942,
      "Ġindustry": 4943,
      "ç³»ç»Ł": 4944,
      "Ġtook": 4945,
      "åħĴ": 4946,
      "è¡Ĺ": 4947,
      "Ġdistance": 4948,
      "ronic": 4949,
      "ports": 4950,
      "bject": 4951,
      "ĠFITNESS": 4952,
      "æĨ": 4953,
      "Ġrespect": 4954,
      "POSE": 4955,
      "Ġtensorflow": 4956,
      "ĠAccording": 4957,
      "åł¡": 4958,
      "hood": 4959,
      "Ġtalk": 4960,
      "Ġcas": 4961,
      "Ġemot": 4962,
      "ĠMERCHANT": 4963,
      "åį«": 4964,
      "éĽħ": 4965,
      "ç¤¾æľĥ": 4966,
      "ĠPUR": 4967,
      "Ġelectric": 4968,
      "Ġmagn": 4969,
      "åī§": 4970,
      "éĽĦ": 4971,
      "ivo": 4972,
      "éĽ»è¦ĸ": 4973,
      "ĠII": 4974,
      "OS": 4975,
      "éŁ¿": 4976,
      "itude": 4977,
      "ĠWill": 4978,
      "icens": 4979,
      "Ġregard": 4980,
      "Exception": 4981,
      "adata": 4982,
      "olute": 4983,
      "éĿ©åĳ½": 4984,
      "Ġinsp": 4985,
      "leg": 4986,
      "iano": 4987,
      "Ġbegan": 4988,
      "ĠPURPOSE": 4989,
      "rypt": 4990,
      "èĥ¡": 4991,
      "ĠĠĠĠĠĠĠĠĠĠĠĠĠĠĠĠĠĠĠĠĠ": 4992,
      "sum": 4993,
      "çĶŁçī©": 4994,
      "ĠPARTIC": 4995,
      "æĶ¯æĮģ": 4996,
      "ç¼ĸ": 4997,
      "Ġdisco": 4998,
      "ĠAnsible": 4999,
      "é£İ": 5000,
      "ĠCons": 5001,
      "Ġestim": 5002,
      "Ġspread": 5003,
      "Ġthing": 5004,
      "exec": 5005,
      "Ġ'%": 5006,
      "ĠCor": 5007,
      "Ġmix": 5008,
      "irm": 5009,
      "ä¸»ç¾©": 5010,
      "ĠPARTICULAR": 5011,
      "éĢĲ": 5012,
      "Ġquant": 5013,
      "Get": 5014,
      "illa": 5015,
      "åĨĻ": 5016,
      "å¥ĸ": 5017,
      "Ġtravel": 5018,
      "ãģ": 5019,
      "ike": 5020,
      "ç»ĩ": 5021,
      "éļ¨": 5022,
      "Ġbooks": 5023,
      "reng": 5024,
      "è¿ŀ": 5025,
      "password": 5026,
      "æĸ¹éĿ¢": 5027,
      "Ġlives": 5028,
      "osa": 5029,
      "Ġdrink": 5030,
      "å¹²": 5031,
      "ara": 5032,
      "ä¸¾": 5033,
      "Ġconsist": 5034,
      "lim": 5035,
      "Ġsafe": 5036,
      "oring": 5037,
      "ä¸Ĭæµ·": 5038,
      "rate": 5039,
      "np": 5040,
      "ĠPre": 5041,
      "Ġshare": 5042,
      "Ġissue": 5043,
      "ç§¯": 5044,
      "Ġapplication": 5045,
      "Ġsin": 5046,
      "rial": 5047,
      "close": 5048,
      "ĠSim": 5049,
      "Ġsurv": 5050,
      "Ġassess": 5051,
      "ĠScience": 5052,
      "Ġdirectory": 5053,
      "ĠRead": 5054,
      "Col": 5055,
      "Ġevalu": 5056,
      "Ġaccur": 5057,
      "Ġpolitical": 5058,
      "Ġej": 5059,
      "option": 5060,
      "used": 5061,
      "MPL": 5062,
      "Ġfarm": 5063,
      "äºĭä»¶": 5064,
      "åĬī": 5065,
      "å¼º": 5066,
      "ĠOpen": 5067,
      "Ġfoods": 5068,
      "ç³»çµ±": 5069,
      "Ġsolar": 5070,
      "Ġdatetime": 5071,
      "åį°åº¦": 5072,
      "ĠGet": 5073,
      "Ġcook": 5074,
      "ĠFirst": 5075,
      "Ġhor": 5076,
      "oper": 5077,
      "æĸ¹æ³ķ": 5078,
      "ĠMERCHANTABILITY": 5079,
      "å»¶": 5080,
      "author": 5081,
      "Ġmiles": 5082,
      "func": 5083,
      "Ġmemory": 5084,
      "unt": 5085,
      "ĠSure": 5086,
      "Ġmock": 5087,
      "Ġled": 5088,
      "Ġå¤ĸ": 5089,
      "Ġdeveloping": 5090,
      "Ġha": 5091,
      "Ġbab": 5092,
      "ederal": 5093,
      "ï¼Īï¼ī": 5094,
      "ĠHi": 5095,
      "Ġexam": 5096,
      "MS": 5097,
      "ĠDef": 5098,
      "Ġfalse": 5099,
      "Ġprograms": 5100,
      "Ġsobre": 5101,
      "df": 5102,
      "ç·¨": 5103,
      "][": 5104,
      "Ġten": 5105,
      "Wh": 5106,
      "å²¸": 5107,
      "Ġax": 5108,
      "istem": 5109,
      "Ġincluded": 5110,
      "settings": 5111,
      "ding": 5112,
      "Ġprep": 5113,
      "çĮ®": 5114,
      "Ġcapt": 5115,
      "nov": 5116,
      "Ġsex": 5117,
      "Ġsubst": 5118,
      "Ġusers": 5119,
      "abled": 5120,
      "top": 5121,
      "ĠMon": 5122,
      "ĠAlthough": 5123,
      "pat": 5124,
      "Ġpan": 5125,
      "Ġstat": 5126,
      "Ġactive": 5127,
      "Ġcreating": 5128,
      "Ġshown": 5129,
      "Ġtransport": 5130,
      "Ġupon": 5131,
      "Ġreview": 5132,
      "éļı": 5133,
      "Ġpolicy": 5134,
      "IV": 5135,
      "åľĭéļĽ": 5136,
      "Ġcred": 5137,
      "ners": 5138,
      "common": 5139,
      "aling": 5140,
      "æĭ¿": 5141,
      "Ġstyle": 5142,
      "çļ®": 5143,
      "æ¥µ": 5144,
      "alueError": 5145,
      "çļĩå¸Ŀ": 5146,
      "Ġfeet": 5147,
      "Ġtrees": 5148,
      "ography": 5149,
      "post": 5150,
      "æĹĹ": 5151,
      "rench": 5152,
      "iciÃ³n": 5153,
      "template": 5154,
      "çķ¥": 5155,
      "related": 5156,
      "FA": 5157,
      "åĺī": 5158,
      "ildren": 5159,
      "è©±": 5160,
      "ÃŃn": 5161,
      "é¤¨": 5162,
      "Ġsimply": 5163,
      "Ġtechniques": 5164,
      "Ġkids": 5165,
      "Ġmilit": 5166,
      "Ġsection": 5167,
      "äºĴ": 5168,
      "æ¯Ľ": 5169,
      "ulate": 5170,
      "ĠFrom": 5171,
      "Ġcirc": 5172,
      "Ġtel": 5173,
      "åĽ½éĻħ": 5174,
      "çµ¦": 5175,
      "Ġrespons": 5176,
      "ĠBritish": 5177,
      "iva": 5178,
      "Ġmarket": 5179,
      "****************": 5180,
      "æĪ²": 5181,
      "çļĦäºº": 5182,
      "æıĲåĩº": 5183,
      "Ġdatabase": 5184,
      "range": 5185,
      "Ġsec": 5186,
      "ifier": 5187,
      "uly": 5188,
      "term": 5189,
      "essages": 5190,
      "èĩ£": 5191,
      "Ġera": 5192,
      "event": 5193,
      "ĠIndia": 5194,
      "Ġgreater": 5195,
      "Ġwild": 5196,
      "Ġitems": 5197,
      "ĠSu": 5198,
      "cache": 5199,
      "Ġscre": 5200,
      "Ġgra": 5201,
      "command": 5202,
      "Ġdou": 5203,
      "Ġgame": 5204,
      "orry": 5205,
      "Ġinside": 5206,
      "\\\\": 5207,
      "ç¬¬ä¸ī": 5208,
      "isions": 5209,
      "ĠGreat": 5210,
      "Ġdirectly": 5211,
      "Ġmom": 5212,
      "æł·": 5213,
      "Ġnotice": 5214,
      "Ġexamples": 5215,
      "Ġsomet": 5216,
      "\"}'}": 5217,
      "èĩªçĦ¶": 5218,
      "itect": 5219,
      "æ°ĳä¸»": 5220,
      "#!": 5221,
      "æ²¹": 5222,
      "å¿«": 5223,
      "Ġface": 5224,
      "Ġaltern": 5225,
      "ĠAustral": 5226,
      "Ġcit": 5227,
      "Â°": 5228,
      "pace": 5229,
      "Ġfem": 5230,
      "IONS": 5231,
      "box": 5232,
      "ç¥¨": 5233,
      "éĢ²è¡Į": 5234,
      "agement": 5235,
      "Ġmsg": 5236,
      "Ġimmun": 5237,
      "ĠNOT": 5238,
      "ĠSO": 5239,
      "çľ¾": 5240,
      "pol": 5241,
      "Ġaud": 5242,
      "Id": 5243,
      "è¯į": 5244,
      "ĠSystem": 5245,
      "ervice": 5246,
      "ervation": 5247,
      "ãĢĭãĢģãĢĬ": 5248,
      "ellow": 5249,
      "ĠFin": 5250,
      "Ġviol": 5251,
      "Ġpict": 5252,
      "é¼": 5253,
      "åĪĩ": 5254,
      "Ġprimary": 5255,
      "åľ°æĸ¹": 5256,
      "tt": 5257,
      "ocr": 5258,
      "indows": 5259,
      "istribut": 5260,
      "ora": 5261,
      "Ġideas": 5262,
      "imientos": 5263,
      "Ġcolon": 5264,
      "ulations": 5265,
      "Ġrequires": 5266,
      "ç§¦": 5267,
      "Ġvirus": 5268,
      "Ġprice": 5269,
      "Ġvariable": 5270,
      "tests": 5271,
      "ributes": 5272,
      "åĬŀ": 5273,
      "Ġmechan": 5274,
      "board": 5275,
      "iation": 5276,
      "uge": 5277,
      "Ġbring": 5278,
      "æĸ¹å¼ı": 5279,
      "rown": 5280,
      "Ġschools": 5281,
      "ĠOver": 5282,
      "tica": 5283,
      "æĹħ": 5284,
      "task": 5285,
      "éĮĦ": 5286,
      "Ġtraditional": 5287,
      "last": 5288,
      "é§": 5289,
      "onom": 5290,
      "rest": 5291,
      "é²ģ": 5292,
      "izes": 5293,
      "æ¨£": 5294,
      "icensed": 5295,
      "Ġselect": 5296,
      "å¤´": 5297,
      "Ġanswer": 5298,
      "Ġremove": 5299,
      "Ġpal": 5300,
      "èĮĥ": 5301,
      "uert": 5302,
      "è½¬": 5303,
      "æıĲä¾Ľ": 5304,
      "ĠCount": 5305,
      "ä¹ħ": 5306,
      "udad": 5307,
      "Ġsche": 5308,
      "çĶ²": 5309,
      "Ġlimited": 5310,
      "ensions": 5311,
      "Ġrock": 5312,
      "æľĢé«ĺ": 5313,
      "æ¤į": 5314,
      "oto": 5315,
      "Ġnamed": 5316,
      "clude": 5317,
      "rast": 5318,
      "Ġdoing": 5319,
      "Ġgoal": 5320,
      "Ġencour": 5321,
      "ufact": 5322,
      "Ġrelat": 5323,
      "Ġcop": 5324,
      "Ġtransform": 5325,
      "ĠĠĠĠĠĠĠĠĠĠĠĠĠĠĠ": 5326,
      "Ġapplications": 5327,
      "æĳ©": 5328,
      "Ġemerg": 5329,
      "imiento": 5330,
      "Ġgetting": 5331,
      "project": 5332,
      "éħĴ": 5333,
      "erts": 5334,
      "Ġforest": 5335,
      "ç¬¦": 5336,
      "åĶ±": 5337,
      "Ġsem": 5338,
      "çĶ±äºİ": 5339,
      "},": 5340,
      "ĠTw": 5341,
      "ĠâĢ¢": 5342,
      "ona": 5343,
      "ĠPres": 5344,
      "ĠThen": 5345,
      "éĢĢ": 5346,
      "Ġreturned": 5347,
      "Ġdamage": 5348,
      "Ġsave": 5349,
      "çĭ¬": 5350,
      "ĠLet": 5351,
      "Ġthreat": 5352,
      "åı³": 5353,
      "Ġattempt": 5354,
      "Log": 5355,
      "Ġgraph": 5356,
      "Ġago": 5357,
      "Ġanimal": 5358,
      "ĠVersion": 5359,
      "Ġexpect": 5360,
      "æīĢä»¥": 5361,
      "éĨ«": 5362,
      "èĭ±åĽ½": 5363,
      "Ġoutside": 5364,
      "Time": 5365,
      "Ġwood": 5366,
      "rees": 5367,
      "Ġbirth": 5368,
      "Ġsecurity": 5369,
      "culate": 5370,
      "Ġsometimes": 5371,
      "è¡Ģ": 5372,
      "ĠLib": 5373,
      "Ġalgorithm": 5374,
      "Ġscript": 5375,
      "Ġtesting": 5376,
      "SD": 5377,
      "èĪ¹": 5378,
      "acional": 5379,
      "æ¢ħ": 5380,
      "Ġĉĉĉ": 5381,
      "Ġinvestig": 5382,
      "ĠCalif": 5383,
      "QL": 5384,
      "oration": 5385,
      "ĠSm": 5386,
      "èĲ¨": 5387,
      "ystem": 5388,
      "èģĮ": 5389,
      "IO": 5390,
      "Ġsociety": 5391,
      "abilities": 5392,
      "local": 5393,
      "Ġwarm": 5394,
      "Ġvia": 5395,
      "éŁĵ": 5396,
      "sys": 5397,
      "çİ¯": 5398,
      "Ġfinan": 5399,
      "Form": 5400,
      "çĶŁæ´»": 5401,
      "åĬĥ": 5402,
      "just": 5403,
      "ja": 5404,
      "Ġequal": 5405,
      "Ġcard": 5406,
      "éļĨ": 5407,
      "contrib": 5408,
      "VER": 5409,
      "è¾¦": 5410,
      "Ġvers": 5411,
      "Ġ..": 5412,
      "Ġparticularly": 5413,
      "èĨ": 5414,
      "Ġsomeone": 5415,
      "IND": 5416,
      "Ġnews": 5417,
      "stream": 5418,
      "å¼Ł": 5419,
      "Ġpick": 5420,
      "ellig": 5421,
      "Ġappropri": 5422,
      "æ¾³": 5423,
      "Ġdir": 5424,
      "ç»Ļ": 5425,
      "Ġtend": 5426,
      "æ¯Ĵ": 5427,
      "Ġdim": 5428,
      "property": 5429,
      "men": 5430,
      "è¯ģ": 5431,
      "Ġhot": 5432,
      "Ġargument": 5433,
      "ĠCenter": 5434,
      "çĴ°": 5435,
      "ç¹¼": 5436,
      "pret": 5437,
      "éľĢè¦ģ": 5438,
      "çº¢": 5439,
      "abetes": 5440,
      "token": 5441,
      "Ġfix": 5442,
      "\");": 5443,
      "æĿŁ": 5444,
      "Ġstreng": 5445,
      "Ġstore": 5446,
      "åįı": 5447,
      "åĮ»": 5448,
      "change": 5449,
      "Ġsustain": 5450,
      "uent": 5451,
      "æľ±": 5452,
      "ximately": 5453,
      "çī©çĲĨ": 5454,
      "èį·": 5455,
      "èİ«": 5456,
      "ĠDE": 5457,
      "ĠEach": 5458,
      "Ġrepl": 5459,
      "ĠSw": 5460,
      "Ġexact": 5461,
      "åħ·æľī": 5462,
      "tw": 5463,
      "Ã©r": 5464,
      "Ġsound": 5465,
      "Ġheav": 5466,
      "Ġseem": 5467,
      "ä¹ĭå¾Į": 5468,
      "éĩİ": 5469,
      "æĿĲ": 5470,
      "Ġculture": 5471,
      "iam": 5472,
      "ĠApache": 5473,
      "ç§°ä¸º": 5474,
      "random": 5475,
      "ster": 5476,
      "Ġstarted": 5477,
      "Ġequip": 5478,
      "ç±į": 5479,
      "Ġgrowing": 5480,
      "ç¸½çµ±": 5481,
      "Ġearth": 5482,
      "Ġign": 5483,
      "Ġsafety": 5484,
      "omb": 5485,
      "aÃ±a": 5486,
      "(_": 5487,
      "Ġq": 5488,
      "PT": 5489,
      "Ġauth": 5490,
      "ĠKing": 5491,
      "match": 5492,
      "èµ«": 5493,
      "ech": 5494,
      "tag": 5495,
      "å©ļ": 5496,
      "ç»Ħç»ĩ": 5497,
      "ĠGl": 5498,
      "Config": 5499,
      "Ġcalculate": 5500,
      "Ġdemon": 5501,
      "pref": 5502,
      "reen": 5503,
      "mand": 5504,
      "Ġexternal": 5505,
      "iers": 5506,
      "Ġlack": 5507,
      "ä¼¦": 5508,
      "vant": 5509,
      "Ġlif": 5510,
      "èŀ": 5511,
      "Ġcivil": 5512,
      "çĶļ": 5513,
      "ils": 5514,
      "room": 5515,
      "Ġmode": 5516,
      "Ġcapital": 5517,
      "åįĶ": 5518,
      "å§Ķåĳĺä¼ļ": 5519,
      "plication": 5520,
      "WAR": 5521,
      "Ġvacc": 5522,
      "arily": 5523,
      "apping": 5524,
      "Ġcompan": 5525,
      "Ġspeed": 5526,
      "ornia": 5527,
      "Ġcentral": 5528,
      "ds": 5529,
      "joy": 5530,
      "Ġdecre": 5531,
      "å®ģ": 5532,
      "Ġrunning": 5533,
      "lands": 5534,
      "session": 5535,
      "ä»ĸåĢĳ": 5536,
      "hic": 5537,
      "iendo": 5538,
      "ĠWARRANTY": 5539,
      "#!/": 5540,
      "ĠLas": 5541,
      "åĩł": 5542,
      "ĠComp": 5543,
      "Ġhar": 5544,
      "address": 5545,
      "Ġclaim": 5546,
      "Ġdur": 5547,
      "ĠRef": 5548,
      "Ġagreed": 5549,
      "Ġprogress": 5550,
      "ä½ľä¸º": 5551,
      "Add": 5552,
      "var": 5553,
      "ĠSince": 5554,
      "æ®º": 5555,
      "é¬": 5556,
      "ä½³": 5557,
      "Ġeasily": 5558,
      "~~~~": 5559,
      "åºŃ": 5560,
      "Ġattention": 5561,
      "Ġdevices": 5562,
      "Ġnumpy": 5563,
      "Ġsentence": 5564,
      "})": 5565,
      "é¥": 5566,
      "win": 5567,
      "ä¸»å¸Ń": 5568,
      "åģĩ": 5569,
      "å·®": 5570,
      "values": 5571,
      "cles": 5572,
      "Ġsil": 5573,
      "Ġord": 5574,
      "éĤĬ": 5575,
      "PA": 5576,
      "ä»ĸä»¬": 5577,
      "ç¶ĵæ¿Ł": 5578,
      "Ġachieve": 5579,
      "ĠST": 5580,
      "Ġconnect": 5581,
      "Ġthird": 5582,
      "Ġdaily": 5583,
      "ĠLear": 5584,
      "unch": 5585,
      "Ġmovement": 5586,
      "useum": 5587,
      "ORT": 5588,
      "é³": 5589,
      "Ġlove": 5590,
      "èįī": 5591,
      "Ġinvolves": 5592,
      "Ġpoll": 5593,
      "plot": 5594,
      "ç´ħ": 5595,
      "cls": 5596,
      "RL": 5597,
      "ç«¯": 5598,
      "æĬ¤": 5599,
      "cean": 5600,
      "Ġcomplet": 5601,
      "icon": 5602,
      "body": 5603,
      "email": 5604,
      "Ġinvolved": 5605,
      "ä»ĭ": 5606,
      "course": 5607,
      "çĪĨ": 5608,
      "æ¦Ĥ": 5609,
      "sign": 5610,
      "zo": 5611,
      "æľĹ": 5612,
      "ĠTrans": 5613,
      "Ap": 5614,
      "example": 5615,
      "Ġep": 5616,
      "Ġparte": 5617,
      "ç¹Ķ": 5618,
      "target": 5619,
      "åĩ»": 5620,
      "Ġteachers": 5621,
      "æ¸©": 5622,
      "float": 5623,
      "ĠHer": 5624,
      "ĠOur": 5625,
      "Ġbad": 5626,
      "è¯º": 5627,
      "Ġbelieve": 5628,
      "airs": 5629,
      "Ġverb": 5630,
      "é¾Ļ": 5631,
      "èĽ": 5632,
      "Ġlibrary": 5633,
      "=[": 5634,
      "Ġguid": 5635,
      "çļĦå¤§": 5636,
      "'}),": 5637,
      "åıĹåĪ°": 5638,
      "å½±éŁ¿": 5639,
      "ĠChar": 5640,
      "Ġcover": 5641,
      "Tr": 5642,
      "Ġproduced": 5643,
      "Ġdoctor": 5644,
      "éİ®": 5645,
      "Ġeye": 5646,
      "Ġcross": 5647,
      "Ġmath": 5648,
      "itation": 5649,
      "å¤§åĪ©": 5650,
      "urg": 5651,
      "Ġdiseases": 5652,
      "mock": 5653,
      "bas": 5654,
      "Ġå¤ĸéĥ¨": 5655,
      "ç§ĳåŃ¦": 5656,
      "Ġfilename": 5657,
      "iar": 5658,
      "Ġquery": 5659,
      "çĽĽ": 5660,
      "current": 5661,
      "Ġserious": 5662,
      "Ġlate": 5663,
      "Ġcurrently": 5664,
      "Ġexperiment": 5665,
      "Ġproperty": 5666,
      "Ġhyd": 5667,
      "Ġgain": 5668,
      "Ġvit": 5669,
      "Ġdemonstr": 5670,
      "Ġproced": 5671,
      "Ġfit": 5672,
      "å¼Ĺ": 5673,
      "è¯Ńè¨Ģ": 5674,
      "erate": 5675,
      "Ġcual": 5676,
      "ĠDuring": 5677,
      "Ġdefined": 5678,
      "Ġcommit": 5679,
      "çĩŁ": 5680,
      "Ġast": 5681,
      "éħ¸": 5682,
      "Ġhasta": 5683,
      "Ġlimitations": 5684,
      "äººæ°ĳåħ±åĴĮåĽ½": 5685,
      "cmd": 5686,
      "arrant": 5687,
      "åħ´": 5688,
      "æºª": 5689,
      "åĪ¤": 5690,
      "OL": 5691,
      "query": 5692,
      "æķ£": 5693,
      "Ġsession": 5694,
      "User": 5695,
      "unto": 5696,
      "ecause": 5697,
      "iency": 5698,
      "ä½įäºİ": 5699,
      "Ġlarger": 5700,
      "width": 5701,
      "char": 5702,
      "è¾¹": 5703,
      "las": 5704,
      "bor": 5705,
      "An": 5706,
      "alls": 5707,
      "çĶ»": 5708,
      "Ġaware": 5709,
      "Ġnort": 5710,
      "ĠCalifornia": 5711,
      "Ġdang": 5712,
      "Ġpoor": 5713,
      "acters": 5714,
      "ĠSet": 5715,
      "ç½²": 5716,
      "Ġnucle": 5717,
      "Ġegg": 5718,
      "Ġwalk": 5719,
      "çµĤ": 5720,
      "Text": 5721,
      "ĠĠĠĠĠĠĠĠĠĠĠĠĠĠĠĠĠĠĠĠĠĠ": 5722,
      "encies": 5723,
      "Hand": 5724,
      "ĠEduc": 5725,
      "eline": 5726,
      "Ġcele": 5727,
      "Ġplatform": 5728,
      "ission": 5729,
      "Ġfoot": 5730,
      "Ġnight": 5731,
      "Ġgot": 5732,
      "ä¸Ńèı¯æ°ĳåľĭ": 5733,
      "Ġquickly": 5734,
      "Ġconcent": 5735,
      "hent": 5736,
      "äº²": 5737,
      "Ġaspect": 5738,
      "èī¯": 5739,
      "iting": 5740,
      "Ġones": 5741,
      "é¡¹": 5742,
      "åĽ½çİĭ": 5743,
      "coming": 5744,
      "number": 5745,
      "çŁŃ": 5746,
      "Ġchanged": 5747,
      "Ġåıĥ": 5748,
      "ĠJew": 5749,
      "Ġste": 5750,
      "Ġanything": 5751,
      "Ġprobably": 5752,
      "cis": 5753,
      "aset": 5754,
      "Ġexisting": 5755,
      "åľĭæ°ĳ": 5756,
      "Ġpsych": 5757,
      "vol": 5758,
      "Ġtypically": 5759,
      "Ġresp": 5760,
      "Ġassign": 5761,
      "Ġhumans": 5762,
      "Ġpassed": 5763,
      "èŃī": 5764,
      "Ġnegative": 5765,
      "Ġsupply": 5766,
      "product": 5767,
      "}'}": 5768,
      "Ġvirt": 5769,
      "ĠEm": 5770,
      "ieved": 5771,
      "oder": 5772,
      "ĠRob": 5773,
      "Ġwarrant": 5774,
      "annel": 5775,
      "apter": 5776,
      "ĠAI": 5777,
      "words": 5778,
      "ĠGoogle": 5779,
      "hing": 5780,
      "Ġang": 5781,
      "Ġofficial": 5782,
      "account": 5783,
      "anks": 5784,
      "SI": 5785,
      "Ġmental": 5786,
      "åª": 5787,
      "','": 5788,
      "Ġleading": 5789,
      "ï¼ļâĢľ": 5790,
      "https": 5791,
      "strip": 5792,
      "otal": 5793,
      "istribute": 5794,
      "antes": 5795,
      "ologÃŃa": 5796,
      "Ġreported": 5797,
      "ully": 5798,
      "asons": 5799,
      "åģľ": 5800,
      "ervised": 5801,
      "é£Ľ": 5802,
      "Ġfeature": 5803,
      "ĠEsp": 5804,
      "ĠåıĤèĢĥ": 5805,
      "ago": 5806,
      "ĠImport": 5807,
      "see": 5808,
      "åĢ«": 5809,
      "({": 5810,
      "Ġexpos": 5811,
      "rad": 5812,
      "CharField": 5813,
      "éŃ¯": 5814,
      "aur": 5815,
      "Ġmanufact": 5816,
      "hold": 5817,
      "åĵ²": 5818,
      "Ġcopyright": 5819,
      "æĬĢæľ¯": 5820,
      "FF": 5821,
      "åĤĻ": 5822,
      "Ġscientific": 5823,
      "éĻµ": 5824,
      "èµĽ": 5825,
      "çĽ®åīį": 5826,
      "ancy": 5827,
      "å¾ĹåĪ°": 5828,
      "ĠSol": 5829,
      "debug": 5830,
      "æ³ķåľĭ": 5831,
      "ĠInstitute": 5832,
      "Ġquite": 5833,
      "å¾©": 5834,
      "Ġgenerally": 5835,
      "Ġpatient": 5836,
      "è¿ĲåĬ¨": 5837,
      "å¯º": 5838,
      "åľį": 5839,
      "åĵį": 5840,
      "è¯Ŀ": 5841,
      "ä¸Ńåħ±": 5842,
      "iny": 5843,
      "Ġelectr": 5844,
      "Ġapproximately": 5845,
      "umber": 5846,
      "Ġincor": 5847,
      "lock": 5848,
      "Ġmeet": 5849,
      "å®®": 5850,
      "Ġpermissions": 5851,
      "Ġcorrespon": 5852,
      "Ġsistem": 5853,
      "Ġpuede": 5854,
      "Ġrule": 5855,
      "Ġexercise": 5856,
      "dout": 5857,
      "è£Ŀ": 5858,
      "Ġwide": 5859,
      "Ġadapt": 5860,
      "éģŃ": 5861,
      "æŀģ": 5862,
      "è¿Ļä¸ª": 5863,
      "Ġmother": 5864,
      "Ġoffer": 5865,
      "èĢ¶": 5866,
      "NAME": 5867,
      "ĠLond": 5868,
      "copy": 5869,
      "Ġcam": 5870,
      "force": 5871,
      "çİī": 5872,
      "icate": 5873,
      "tico": 5874,
      "Ġdistribution": 5875,
      "ĠFrench": 5876,
      "Ġscale": 5877,
      "edia": 5878,
      "ç©į": 5879,
      "Ġproperties": 5880,
      "position": 5881,
      "Ġreflect": 5882,
      "'\\": 5883,
      "æŁĲ": 5884,
      "mode": 5885,
      "èīº": 5886,
      "ui": 5887,
      "Ġfilter": 5888,
      "ĠWork": 5889,
      "KE": 5890,
      "Ġï¼Ī": 5891,
      "Ġ//": 5892,
      "Ġharm": 5893,
      "Ġconstant": 5894,
      "Ġtheory": 5895,
      "ube": 5896,
      "è¨±å¤ļ": 5897,
      "Ġdrop": 5898,
      "Ġcomb": 5899,
      "ĠHar": 5900,
      "ĠDevelop": 5901,
      "atives": 5902,
      "Ġgard": 5903,
      "ĠKIND": 5904,
      "ponse": 5905,
      "æĪ¿": 5906,
      "Ġfront": 5907,
      "è«¾": 5908,
      "éĢłæĪĲ": 5909,
      "Sh": 5910,
      "itionally": 5911,
      "ATA": 5912,
      "æĿ¾": 5913,
      "Ġcommunities": 5914,
      "Ġinfection": 5915,
      "ordin": 5916,
      "Ġbehind": 5917,
      "esc": 5918,
      "Ġredistribute": 5919,
      "Ġtag": 5920,
      "Ġciudad": 5921,
      "Ġtro": 5922,
      "ologies": 5923,
      "Ġinstr": 5924,
      "Ġ'/": 5925,
      "Ġcollection": 5926,
      "hel": 5927,
      "Ġvisual": 5928,
      "åŃ¸éĻ¢": 5929,
      "çİĭæľĿ": 5930,
      "alt": 5931,
      "Ġfunc": 5932,
      "eks": 5933,
      "Ġimag": 5934,
      "æ¸¬": 5935,
      "èĮ¶": 5936,
      "Ġdecision": 5937,
      "MENT": 5938,
      "Ġdigital": 5939,
      "ola": 5940,
      "åħį": 5941,
      "PY": 5942,
      "Ġconvert": 5943,
      "Ġcontinu": 5944,
      "uk": 5945,
      "Ġmer": 5946,
      "Ġcompliance": 5947,
      "ĠĠĠĠĠĠĠĠĠĠĠĠĠĠĠĠĠĠĠĠĠĠĠ": 5948,
      "å°ļ": 5949,
      "Ġnote": 5950,
      "Ġhandle": 5951,
      "ĠAnother": 5952,
      "Ġassist": 5953,
      "Ġinstit": 5954,
      "column": 5955,
      "cel": 5956,
      "Ġalt": 5957,
      "uster": 5958,
      "çĪ±": 5959,
      "çĥĪ": 5960,
      "Ġbacteria": 5961,
      "lement": 5962,
      "Ġprivate": 5963,
      "omas": 5964,
      "ĠBo": 5965,
      "ĠDav": 5966,
      "UD": 5967,
      "è¾ĸ": 5968,
      "ä½Ļ": 5969,
      "Ġapplicable": 5970,
      "Ġmayor": 5971,
      "Ġsold": 5972,
      "Ġdry": 5973,
      "ĠnÃº": 5974,
      "èĳĹåĲį": 5975,
      "Ġcompared": 5976,
      "ĠAlso": 5977,
      "txt": 5978,
      "çļĦæĺ¯": 5979,
      "åŁºæľ¬": 5980,
      "ĠJan": 5981,
      "GE": 5982,
      "sect": 5983,
      "ä¸Ńåįİäººæ°ĳåħ±åĴĮåĽ½": 5984,
      "Ġstream": 5985,
      "Ġlayer": 5986,
      "SC": 5987,
      "Ġaff": 5988,
      "Ġprocessing": 5989,
      "Ġunittest": 5990,
      "æĪĺäºī": 5991,
      "Ġsteps": 5992,
      "has": 5993,
      "iot": 5994,
      "atur": 5995,
      "éĥ½æĺ¯": 5996,
      "ĠEX": 5997,
      "Ġclasses": 5998,
      "pty": 5999,
      "ynam": 6000,
      "Ser": 6001,
      "icans": 6002,
      "åĩºçı¾": 6003,
      "ĠWhy": 6004,
      "Ġlocated": 6005,
      "Ġcapac": 6006,
      "gy": 6007,
      "å¹¾": 6008,
      "vas": 6009,
      "æĪĲåĬŁ": 6010,
      "ashing": 6011,
      "äº¤éĢļ": 6012,
      "Ġflu": 6013,
      "çīĽ": 6014,
      "except": 6015,
      "aria": 6016,
      "ĠRec": 6017,
      "ishing": 6018,
      "Ġappropriate": 6019,
      "cast": 6020,
      "ionary": 6021,
      "åħ¼": 6022,
      "ãĤ": 6023,
      "çīĮ": 6024,
      "çĻ¼çı¾": 6025,
      "åĸĦ": 6026,
      "èĴĤ": 6027,
      "omin": 6028,
      "åĽŃ": 6029,
      "Ġupdate": 6030,
      "Ġadminist": 6031,
      "å¸Ŀåľĭ": 6032,
      "çĭĢ": 6033,
      "å¢ŀåĬł": 6034,
      "ĠÃ©": 6035,
      "ceed": 6036,
      "Ġtemplate": 6037,
      "Ġthread": 6038,
      "icken": 6039,
      "rm": 6040,
      "Ġsend": 6041,
      "Ġbox": 6042,
      "ĠAPI": 6043,
      ")),": 6044,
      "Ġthous": 6045,
      "Ġ'.": 6046,
      "é»İ": 6047,
      "Ġcls": 6048,
      "connect": 6049,
      "è®ĵ": 6050,
      "Ġdesde": 6051,
      "æĢģ": 6052,
      "æħĭ": 6053,
      "tem": 6054,
      "ç¡®": 6055,
      "oday": 6056,
      "oice": 6057,
      "Ġhighly": 6058,
      "uries": 6059,
      "cil": 6060,
      "æ²¿": 6061,
      "Ġorganiz": 6062,
      "å±¤": 6063,
      "replace": 6064,
      "Ġdark": 6065,
      "Ġstay": 6066,
      "Ġcenter": 6067,
      "Ġunits": 6068,
      "Ġroad": 6069,
      "Ġheight": 6070,
      "Ġspecified": 6071,
      "ä½įæĸ¼": 6072,
      "ĠRem": 6073,
      "åĭ¢": 6074,
      "oke": 6075,
      "hemat": 6076,
      "åĲĮæĻĤ": 6077,
      ")))": 6078,
      "vest": 6079,
      "ĠLicensed": 6080,
      "æĺĮ": 6081,
      "èµ°": 6082,
      "vis": 6083,
      "Ġcultural": 6084,
      "æİ§åĪ¶": 6085,
      "Ġlargest": 6086,
      "Ġsolution": 6087,
      "Ġcritical": 6088,
      "ĠDay": 6089,
      "____": 6090,
      "Ġmole": 6091,
      "CON": 6092,
      "Ġrecommend": 6093,
      "æıı": 6094,
      "Ġgenerated": 6095,
      "rome": 6096,
      "éĢĻäºĽ": 6097,
      "Ġadults": 6098,
      "ä»ģ": 6099,
      "Ġforma": 6100,
      "Ġfast": 6101,
      "éłħ": 6102,
      "ĠCheck": 6103,
      "Ġä¸ŃåĽ½": 6104,
      "Ġda": 6105,
      "ĠPark": 6106,
      "ĠOnce": 6107,
      "ĠAug": 6108,
      "cohol": 6109,
      "Ġjoin": 6110,
      "TER": 6111,
      "Ġtiss": 6112,
      "å§Ķåĵ¡": 6113,
      "Ġrules": 6114,
      "ĠVir": 6115,
      "ĠAD": 6116,
      "åŃ¦æł¡": 6117,
      "æĻĤéĸĵ": 6118,
      "oria": 6119,
      "rict": 6120,
      "where": 6121,
      "Ġsevere": 6122,
      "Ġmonitor": 6123,
      "ULT": 6124,
      "Ġconoc": 6125,
      "ç»§": 6126,
      "çŃĳ": 6127,
      "vention": 6128,
      "Ġdif": 6129,
      "å¸ĿåĽ½": 6130,
      "Ġupd": 6131,
      "Ġconstruct": 6132,
      "å½¹": 6133,
      "Ġchoices": 6134,
      "stract": 6135,
      "ĠData": 6136,
      "Ġfib": 6137,
      "ĠAng": 6138,
      "imin": 6139,
      "åľ£": 6140,
      "rogen": 6141,
      "Ġinternational": 6142,
      "cn": 6143,
      "uman": 6144,
      "Ġmoment": 6145,
      "Ġflo": 6146,
      "éģł": 6147,
      "èŃ¦": 6148,
      "Ġwarranty": 6149,
      "Ġllam": 6150,
      "apache": 6151,
      "Ġborn": 6152,
      "ãĢĭãĢĤ": 6153,
      "è·Ŀ": 6154,
      "={": 6155,
      "pc": 6156,
      "éĽĻ": 6157,
      "ä¿Ĥ": 6158,
      "Ġvariables": 6159,
      "THER": 6160,
      "verning": 6161,
      "ĠMat": 6162,
      "äºĮåįģ": 6163,
      "unk": 6164,
      "Ġprimer": 6165,
      "fail": 6166,
      "Ġimmedi": 6167,
      "å²ģ": 6168,
      "License": 6169,
      "è¾²": 6170,
      "è£¡": 6171,
      "Ġcompanies": 6172,
      "æ³ķåĽ½": 6173,
      "Ġvehic": 6174,
      "è©ķ": 6175,
      "ĠUnless": 6176,
      "Ġweather": 6177,
      "DIT": 6178,
      ")]": 6179,
      "æºĸ": 6180,
      "rong": 6181,
      "Ġå¤§": 6182,
      "ĠDepartment": 6183,
      "Ġmis": 6184,
      "Ġrob": 6185,
      "ä¸įæĺ¯": 6186,
      "Ġabsolute": 6187,
      "ĠEuropean": 6188,
      "Ġprocesses": 6189,
      "Ġmount": 6190,
      "delete": 6191,
      "ricult": 6192,
      "Ġnation": 6193,
      "ĠBecause": 6194,
      "ĠPlease": 6195,
      "undo": 6196,
      "TY": 6197,
      "Ġconstit": 6198,
      "anged": 6199,
      "èı²": 6200,
      "fg": 6201,
      "Ġcharacters": 6202,
      "ĠPRO": 6203,
      "Ġbroad": 6204,
      "Ġpero": 6205,
      "é¦Ĩ": 6206,
      "ä»Ģ": 6207,
      "ĠAre": 6208,
      "Ġreve": 6209,
      "ĠSub": 6210,
      "Ġdire": 6211,
      "Ġâ": 6212,
      "ĠCONT": 6213,
      "fit": 6214,
      "Ġcour": 6215,
      "ĠBu": 6216,
      "ç»Ń": 6217,
      "Ġrain": 6218,
      "å½ĵæĹ¶": 6219,
      "ĠLab": 6220,
      "ĠEven": 6221,
      "Ġhyp": 6222,
      "ĠĠĠĠĠĠĠĠĠĠĠĠĠĠĠĠĠĠ": 6223,
      "æ®ĸ": 6224,
      "éŃı": 6225,
      "(?": 6226,
      "ĠPa": 6227,
      "network": 6228,
      "Ġparse": 6229,
      "Ġpackage": 6230,
      "ims": 6231,
      "æĸ¯çī¹": 6232,
      "Ġseason": 6233,
      "å°¾": 6234,
      "orge": 6235,
      "Ġgoverning": 6236,
      "haps": 6237,
      "è¼ī": 6238,
      "Ġcelebr": 6239,
      "det": 6240,
      "mitted": 6241,
      "ĠHistory": 6242,
      "color": 6243,
      "View": 6244,
      "swith": 6245,
      "Ġburn": 6246,
      "Ġreach": 6247,
      "ĠAg": 6248,
      "å»·": 6249,
      "Ġwaste": 6250,
      "Ġatm": 6251,
      "Ra": 6252,
      "è¿ĻäºĽ": 6253,
      "çĨ±": 6254,
      "èľ": 6255,
      "ãĢĤâĢĿ": 6256,
      "Ġbeginning": 6257,
      "inct": 6258,
      "Ġentry": 6259,
      "Ġcosts": 6260,
      "Ġagricult": 6261,
      "long": 6262,
      "åıªæľī": 6263,
      "Ġplanet": 6264,
      "Ġrout": 6265,
      "assertTrue": 6266,
      "oe": 6267,
      "Ġtur": 6268,
      "Ġcool": 6269,
      "orders": 6270,
      "åĦ¿": 6271,
      "Ġutiliz": 6272,
      "MO": 6273,
      "hy": 6274,
      "æŀ¶": 6275,
      "LICENSE": 6276,
      "æ°§": 6277,
      "ony": 6278,
      "éªĮ": 6279,
      "å½¢å¼ı": 6280,
      "Ġfamilies": 6281,
      "Ġpurpose": 6282,
      "å¤ĩ": 6283,
      "ç»Ī": 6284,
      "ä½ľçĤº": 6285,
      "Pl": 6286,
      "life": 6287,
      "ç¢º": 6288,
      "Ġteaching": 6289,
      "Ġleaves": 6290,
      "Ġtown": 6291,
      "iento": 6292,
      "roy": 6293,
      "allow": 6294,
      "Ġeating": 6295,
      "issions": 6296,
      "Ġfinancial": 6297,
      "PL": 6298,
      "Ġhy": 6299,
      "enge": 6300,
      "Ġsouth": 6301,
      "Ġenjoy": 6302,
      "Ġlabor": 6303,
      "ĠInst": 6304,
      "anto": 6305,
      "ĠJes": 6306,
      "dep": 6307,
      "arnings": 6308,
      "Ġprotein": 6309,
      "/>": 6310,
      "Ġplaces": 6311,
      "Ġcompos": 6312,
      "los": 6313,
      "æĸĩçĮ®": 6314,
      "èŃ¯": 6315,
      "Ġbott": 6316,
      "è¦ģæ±Ĥ": 6317,
      "mary": 6318,
      "ä¹Łæľī": 6319,
      "Ġnombre": 6320,
      "èŃ·": 6321,
      "################################################################": 6322,
      "åĲĮæĹ¶": 6323,
      "ĠKey": 6324,
      "Ġnorm": 6325,
      "soft": 6326,
      "const": 6327,
      "Ġsmaller": 6328,
      "sa": 6329,
      "ĠCreate": 6330,
      "éĢģ": 6331,
      "erences": 6332,
      "Ġinterpret": 6333,
      "ĠespaÃ±": 6334,
      "å¾Ĵ": 6335,
      "Ġprojects": 6336,
      "å¦Ĥæŀľ": 6337,
      "undred": 6338,
      "Ġestablished": 6339,
      "ingu": 6340,
      "Ġleaders": 6341,
      "Return": 6342,
      "err": 6343,
      "Ġspeak": 6344,
      "Ġprinci": 6345,
      "ĠRuss": 6346,
      "ensity": 6347,
      "éŁ³æ¨Ĥ": 6348,
      "Ġice": 6349,
      "Ġsugar": 6350,
      "sm": 6351,
      "pop": 6352,
      "æĻļ": 6353,
      "éĹ®é¢ĺ": 6354,
      "ĠBAS": 6355,
      "Ġbul": 6356,
      "Ġisn": 6357,
      "Ġweeks": 6358,
      "Ġteeth": 6359,
      "ĠestÃ¡": 6360,
      "Ġhttps": 6361,
      "Ġmiddle": 6362,
      "Ġcommunication": 6363,
      "Ġdead": 6364,
      "åĽº": 6365,
      "Ġlands": 6366,
      "formation": 6367,
      "Ġacid": 6368,
      "Ġlost": 6369,
      "Ġ''": 6370,
      "ä½ľçĶ¨": 6371,
      "Ġthinking": 6372,
      "ĠIndian": 6373,
      "calculate": 6374,
      "èī¾": 6375,
      "æķĹ": 6376,
      "æĮī": 6377,
      "uto": 6378,
      "è£ħ": 6379,
      "ĠWeb": 6380,
      "Ġcontroll": 6381,
      "datetime": 6382,
      "Ġdivision": 6383,
      "\"],": 6384,
      "Ġancient": 6385,
      "Ġparameters": 6386,
      "æº«": 6387,
      "Ġterrit": 6388,
      "WARE": 6389,
      "ĠNote": 6390,
      "CC": 6391,
      "åŃ«": 6392,
      "Ġsuccessfully": 6393,
      "unic": 6394,
      "ĠReturns": 6395,
      "pite": 6396,
      "Ġcmd": 6397,
      "ĠDon": 6398,
      "ĠSur": 6399,
      "çµĦç¹Ķ": 6400,
      "ĠTechn": 6401,
      "æĺ¯åľ¨": 6402,
      "EL": 6403,
      "é¡¯": 6404,
      "ä¼ģ": 6405,
      "gnu": 6406,
      "ĠType": 6407,
      "Ġdiabetes": 6408,
      "Ġfuel": 6409,
      "å±Ĭ": 6410,
      "ĠValueError": 6411,
      "expected": 6412,
      "Ġcompet": 6413,
      "Ġcrop": 6414,
      "å®³": 6415,
      "ĠInter": 6416,
      "æİ¢": 6417,
      "Ġerrors": 6418,
      "èĢ³": 6419,
      "rica": 6420,
      "Ġblue": 6421,
      "UP": 6422,
      "ĠAff": 6423,
      "ĠCur": 6424,
      "hens": 6425,
      ":`": 6426,
      "(*": 6427,
      "Ġded": 6428,
      "Ġbur": 6429,
      "èĸ©": 6430,
      "Ġchoose": 6431,
      "éĻĪ": 6432,
      "iente": 6433,
      "erent": 6434,
      "éĩĩ": 6435,
      "Ġgrand": 6436,
      "By": 6437,
      "çį²å¾Ĺ": 6438,
      "åĬłåħ¥": 6439,
      "ç°¡": 6440,
      "Ġconfl": 6441,
      "Ġtoken": 6442,
      "å£°": 6443,
      "web": 6444,
      "Ġrates": 6445,
      "ĠRiver": 6446,
      "ç§ĭ": 6447,
      "Ġpen": 6448,
      "Ġreturns": 6449,
      "Ġwest": 6450,
      "Ġexception": 6451,
      "olean": 6452,
      "Ġesta": 6453,
      "ä»»ä½ķ": 6454,
      "æ¢ģ": 6455,
      "åºĹ": 6456,
      "Ġallowed": 6457,
      "etch": 6458,
      "ĠList": 6459,
      "æĻº": 6460,
      "Ġproviding": 6461,
      "isms": 6462,
      "Ġefficient": 6463,
      "sec": 6464,
      "å±Ĥ": 6465,
      "price": 6466,
      "æŃ²": 6467,
      "Ġpresident": 6468,
      "prefix": 6469,
      "Ġoccurs": 6470,
      "ilos": 6471,
      "idden": 6472,
      "æĪ°çĪŃ": 6473,
      "store": 6474,
      "Ġnull": 6475,
      "location": 6476,
      "ç§Ģ": 6477,
      "ajo": 6478,
      "Ġparams": 6479,
      "ously": 6480,
      "ĠAfrica": 6481,
      "only": 6482,
      "acing": 6483,
      "Ġbecomes": 6484,
      "Ġseems": 6485,
      "stop": 6486,
      "username": 6487,
      "anguages": 6488,
      "step": 6489,
      "è°·": 6490,
      "ç¿°": 6491,
      "Ġrom": 6492,
      "ĠInternational": 6493,
      "Ġsetting": 6494,
      "Ġwhose": 6495,
      "åŃ¸æł¡": 6496,
      "ĠĠĠĠĠĠĠĠĠĠĠĠĠĠĠĠĠĠĠĠĠĠĠĠĠ": 6497,
      "å½±åĵį": 6498,
      "Ġbinary": 6499,
      "arian": 6500,
      "URL": 6501,
      "ĠCong": 6502,
      "itable": 6503,
      "ÃŃan": 6504,
      "Ġnearly": 6505,
      "ĠLondon": 6506,
      "Class": 6507,
      "éĢĻåĢĭ": 6508,
      "outhern": 6509,
      "train": 6510,
      "Ġwait": 6511,
      "æŃĮæīĭ": 6512,
      "ĠMake": 6513,
      "Ġeverything": 6514,
      "Ġtowards": 6515,
      "ĠKe": 6516,
      "ĠIP": 6517,
      "è²Ŀ": 6518,
      "Ġsummer": 6519,
      "Object": 6520,
      "æª": 6521,
      "Ġkwargs": 6522,
      "Ġpet": 6523,
      "Ġmal": 6524,
      "DITIONS": 6525,
      "äºĳ": 6526,
      "Ġgives": 6527,
      "ä¹¡": 6528,
      "Ġraw": 6529,
      "Ġsoon": 6530,
      "igration": 6531,
      "ĠOct": 6532,
      "Ġdonde": 6533,
      "patch": 6534,
      "Path": 6535,
      "çĪµ": 6536,
      "currency": 6537,
      "ALL": 6538,
      "save": 6539,
      "AA": 6540,
      "DS": 6541,
      "exit": 6542,
      "ĠJust": 6543,
      "è¨Ńè¨Ī": 6544,
      "Ġwel": 6545,
      "stack": 6546,
      "Ġhands": 6547,
      "ĠMarch": 6548,
      "EX": 6549,
      "Ġinteresting": 6550,
      "Ġactions": 6551,
      "å®ĹæķĻ": 6552,
      "Ġwin": 6553,
      "Ġintellig": 6554,
      "strict": 6555,
      "Ġolder": 6556,
      "Ġtherefore": 6557,
      "Ġarguments": 6558,
      "Ġcommonly": 6559,
      "ABLE": 6560,
      "(__": 6561,
      "Ġvar": 6562,
      "éĽĸ": 6563,
      "åĸľ": 6564,
      "Ġcou": 6565,
      "Ġenv": 6566,
      "ï¼ļãĢĮ": 6567,
      "ATION": 6568,
      "ĠPat": 6569,
      "Ġextract": 6570,
      "Ġprotection": 6571,
      "Ġhol": 6572,
      "lor": 6573,
      "oes": 6574,
      "Ġfloat": 6575,
      "ĠCONDITIONS": 6576,
      "ĠBASIS": 6577,
      "äºĨä¸Ģ": 6578,
      "Ġexpand": 6579,
      "è´Ŀ": 6580,
      "èķ": 6581,
      "lection": 6582,
      "Ġbeaut": 6583,
      "Ġsurround": 6584,
      "water": 6585,
      "SON": 6586,
      "Ġpurch": 6587,
      "å¾Įä¾Ĩ": 6588,
      "ĠHol": 6589,
      "çĥŃ": 6590,
      "ĠAfrican": 6591,
      "çĻ¼çĶŁ": 6592,
      "ĠBr": 6593,
      "ç³»åĪĹ": 6594,
      "ãĢĤï¼Ī": 6595,
      "ipp": 6596,
      "æĵį": 6597,
      "Ġstorage": 6598,
      "ĠString": 6599,
      "Ġconfiguration": 6600,
      "å®ĮæĪĲ": 6601,
      "åįĹäº¬": 6602,
      "Ġaqu": 6603,
      "ĠEs": 6604,
      "åĽłä¸º": 6605,
      "æİ¡": 6606,
      "admin": 6607,
      "æµĭ": 6608,
      "èªŀè¨Ģ": 6609,
      "house": 6610,
      "æĪĲåĵ¡": 6611,
      "èİ·å¾Ĺ": 6612,
      "Ġult": 6613,
      "sor": 6614,
      "ita": 6615,
      "Ġfactor": 6616,
      "ÃŃas": 6617,
      "Ġdemand": 6618,
      "è²»": 6619,
      "ĠMus": 6620,
      "è®Ģ": 6621,
      "Ġcert": 6622,
      "åĿĢ": 6623,
      "Ġfight": 6624,
      "anish": 6625,
      "Ġheld": 6626,
      "service": 6627,
      "car": 6628,
      "ĠAmericans": 6629,
      "Ġansible": 6630,
      "uciÃ³n": 6631,
      "åĲ¸": 6632,
      "æĭľ": 6633,
      "Ġleave": 6634,
      "ranch": 6635,
      "Ġdeal": 6636,
      "ided": 6637,
      "èĪŀ": 6638,
      "Ġdocumentation": 6639,
      "amount": 6640,
      "èĥĮ": 6641,
      "pk": 6642,
      "æĽ¹": 6643,
      "éĿŀå¸¸": 6644,
      "ç®Ģ": 6645,
      "åĪĺ": 6646,
      "åĨł": 6647,
      "ä¹ĭåĲİ": 6648,
      "inc": 6649,
      "ester": 6650,
      "Ġeyes": 6651,
      "compile": 6652,
      "ĠProgram": 6653,
      "ç¯Ħ": 6654,
      "Value": 6655,
      "itis": 6656,
      "ificial": 6657,
      "Ġapply": 6658,
      "ĠUser": 6659,
      "çĦ¶èĢĮ": 6660,
      "åĥ¹": 6661,
      "Ġsites": 6662,
      "cha": 6663,
      "Ġthus": 6664,
      "Ġpractices": 6665,
      "æł¹æį®": 6666,
      "odies": 6667,
      "ĠProject": 6668,
      "arroll": 6669,
      "å³°": 6670,
      "ç¦ģ": 6671,
      "åļ": 6672,
      "ç¯ĩ": 6673,
      "éĢı": 6674,
      "enz": 6675,
      "ä¸Ģä¸ĸ": 6676,
      "Ġlicense": 6677,
      "Ã³m": 6678,
      "Ġsituation": 6679,
      "entry": 6680,
      "æ´¥": 6681,
      "âĢĿ.": 6682,
      "Ġroom": 6683,
      "ä½ľå®¶": 6684,
      "Ġarr": 6685,
      "åıĳçİ°": 6686,
      "src": 6687,
      "ulf": 6688,
      "å·¥ä¸ļ": 6689,
      "ç»Ĩ": 6690,
      "ĠPeople": 6691,
      "èĥŀ": 6692,
      "Ġimportance": 6693,
      "Ġremains": 6694,
      "Ġconver": 6695,
      "åį·": 6696,
      "Request": 6697,
      "Ġimm": 6698,
      "Ġdivid": 6699,
      "Ġeth": 6700,
      "åĲĮå¹´": 6701,
      "Ġcloud": 6702,
      "Ġcarry": 6703,
      "Ġgran": 6704,
      "åĳ¼": 6705,
      "æĢ§çļĦ": 6706,
      "èŃĺ": 6707,
      "æĪı": 6708,
      "Ġstre": 6709,
      "tery": 6710,
      "å¤§éĩı": 6711,
      "Ġsquare": 6712,
      "ĠCity": 6713,
      "Ġgir": 6714,
      "Ġdivers": 6715,
      "Is": 6716,
      "Ġbuy": 6717,
      "grad": 6718,
      "Ġdetect": 6719,
      "Ġreceive": 6720,
      "ä¹ĭéĸĵ": 6721,
      "çĽĬ": 6722,
      "Ġsequence": 6723,
      "Ġcontaining": 6724,
      "æĻĤä»£": 6725,
      "ĠSer": 6726,
      "ä¼Ĺ": 6727,
      "Ġjud": 6728,
      "ĠHigh": 6729,
      "inese": 6730,
      "lier": 6731,
      "ĠBar": 6732,
      "Ġreference": 6733,
      "Handler": 6734,
      "Ġcompar": 6735,
      "yl": 6736,
      "Ġcomponents": 6737,
      "uan": 6738,
      "\">": 6739,
      "XX": 6740,
      "hest": 6741,
      "orig": 6742,
      "åĲ¦": 6743,
      "ĠGerman": 6744,
      "Ġcand": 6745,
      "ĠDel": 6746,
      "bed": 6747,
      "éĽ²": 6748,
      "åĥħ": 6749,
      "ÃŃst": 6750,
      "Ġbirds": 6751,
      "Ġconflict": 6752,
      "QU": 6753,
      "Ġbound": 6754,
      "rics": 6755,
      "ĠpaÃŃs": 6756,
      "ij": 6757,
      "ena": 6758,
      "Ġoverall": 6759,
      "Ġbehavi": 6760,
      "direct": 6761,
      "Ġresponsible": 6762,
      "Ġprimera": 6763,
      "Ġnovel": 6764,
      "Ġdegrees": 6765,
      "cell": 6766,
      "Ġhundred": 6767,
      "æŀĲ": 6768,
      "Ġcoast": 6769,
      "Ġrare": 6770,
      "ï¼īï¼ļ": 6771,
      "Ġmember": 6772,
      "ĠPort": 6773,
      "Ġexecut": 6774,
      "æĴ¤": 6775,
      "xx": 6776,
      "è¯ķ": 6777,
      "MI": 6778,
      "Ġconstruction": 6779,
      "Ġmid": 6780,
      "Ġoperations": 6781,
      "Ġatmosp": 6782,
      "æĿľ": 6783,
      "Ġmulti": 6784,
      "åħĥç´ł": 6785,
      "+)": 6786,
      "king": 6787,
      "idents": 6788,
      "Ġuid": 6789,
      "æĹ¶éĹ´": 6790,
      "mar": 6791,
      "éĹľä¿Ĥ": 6792,
      "Ġregist": 6793,
      "è©©": 6794,
      "Ġtrig": 6795,
      "ĠGree": 6796,
      "Ġworkers": 6797,
      "å§ĵ": 6798,
      "ĠCanada": 6799,
      "ining": 6800,
      "æ¼«": 6801,
      "istant": 6802,
      "åĽ´": 6803,
      "Ġcompre": 6804,
      "Ġsignal": 6805,
      "estic": 6806,
      "irit": 6807,
      "Ġcold": 6808,
      "Ġclin": 6809,
      "è¯Ĩ": 6810,
      "Ġvolume": 6811,
      "å½ķ": 6812,
      "Ġoptim": 6813,
      "Ġwrap": 6814,
      "Ġemp": 6815,
      "Ġsaw": 6816,
      "ĠAssoci": 6817,
      "FTWARE": 6818,
      "äºĪ": 6819,
      "ä¹ĭéĹ´": 6820,
      "Ġchallenges": 6821,
      "Ġneut": 6822,
      "ãĢĢ": 6823,
      "dig": 6824,
      "åĪĬ": 6825,
      "å®ļçļĦ": 6826,
      "ĠBi": 6827,
      "Ġcoll": 6828,
      "åĶ¯": 6829,
      "ä»ħ": 6830,
      "é²ľ": 6831,
      "').": 6832,
      "ä¸½": 6833,
      "eding": 6834,
      "PS": 6835,
      "encode": 6836,
      "Ġvict": 6837,
      "Ġrecently": 6838,
      "Ġnorth": 6839,
      "ĠnÃºmer": 6840,
      "Ġcast": 6841,
      "Ġemissions": 6842,
      "Ġteacher": 6843,
      "è¥¿çıŃ": 6844,
      "çĽ´æİ¥": 6845,
      "Ġreci": 6846,
      "è¿½": 6847,
      "Man": 6848,
      "DA": 6849,
      "elt": 6850,
      "ĠApr": 6851,
      "argument": 6852,
      "Ġmo": 6853,
      "ĠJune": 6854,
      "adores": 6855,
      "press": 6856,
      "Ġrelease": 6857,
      "è¥¿çıŃçīĻ": 6858,
      "BC": 6859,
      "ĠWater": 6860,
      "Ġtrying": 6861,
      "ĠEnvironment": 6862,
      "èĲ¥": 6863,
      "isl": 6864,
      "Ind": 6865,
      "Ġunicode": 6866,
      "Ġattr": 6867,
      "Ġrelative": 6868,
      "Ġlogger": 6869,
      "ford": 6870,
      "æ³Ľ": 6871,
      "Ġrepe": 6872,
      "static": 6873,
      "ç¿»": 6874,
      "åķıé¡Į": 6875,
      "Ġhac": 6876,
      "æĹ©æľŁ": 6877,
      "Raises": 6878,
      "Ġwent": 6879,
      "Ġaffected": 6880,
      "Ġefforts": 6881,
      "mt": 6882,
      "Ġpages": 6883,
      "Ã³g": 6884,
      "Ġsorry": 6885,
      "è´¹": 6886,
      "Ġbaby": 6887,
      "ĠEducation": 6888,
      "ĠAR": 6889,
      "Ġerr": 6890,
      "Ġfriend": 6891,
      "äºĮä¸ĸ": 6892,
      "uits": 6893,
      "ĠUN": 6894,
      "ç½Ĺé©¬": 6895,
      "header": 6896,
      "ometry": 6897,
      "SA": 6898,
      "ham": 6899,
      "ĠAugust": 6900,
      "ãĢįï¼Ī": 6901,
      "\"))": 6902,
      "Ġwor": 6903,
      "ä¼ļè®®": 6904,
      "Ġstock": 6905,
      "Ġswe": 6906,
      "ä¾µ": 6907,
      "ĠSOFTWARE": 6908,
      "Ġgoes": 6909,
      "å®ĩ": 6910,
      "åħ¬åħĥ": 6911,
      "script": 6912,
      "ç©Ĩ": 6913,
      "Ġcalend": 6914,
      "cher": 6915,
      "Ġalgorithms": 6916,
      "ä¸įåĲĮçļĦ": 6917,
      "Ġperfect": 6918,
      "å¾·åĽ½": 6919,
      "éĻ¤äºĨ": 6920,
      "tk": 6921,
      "Ġalthough": 6922,
      "ä¾¯": 6923,
      "ç¾ħé¦¬": 6924,
      "ĠException": 6925,
      "éĽ¨": 6926,
      "Ġfederal": 6927,
      "ä¹Į": 6928,
      "è¤": 6929,
      "æľĢå¾Į": 6930,
      "Ġreleased": 6931,
      "å»ºçŃĳ": 6932,
      "ospital": 6933,
      "atically": 6934,
      "ĠURL": 6935,
      "Ġdesarroll": 6936,
      "åĪ°äºĨ": 6937,
      "çĬ¶": 6938,
      "ĠRights": 6939,
      "åĩºçİ°": 6940,
      "first": 6941,
      "æĵĶ": 6942,
      "Ġwinter": 6943,
      "raction": 6944,
      "è®¡ç®Ĺ": 6945,
      "Ġcomponent": 6946,
      "Ġfran": 6947,
      "ĠName": 6948,
      "Ġbillion": 6949,
      "anges": 6950,
      "Ġrot": 6951,
      "Ġĉĉĉĉ": 6952,
      "ashington": 6953,
      "ocal": 6954,
      "Ġapplied": 6955,
      "erior": 6956,
      "æ³ķå¾ĭ": 6957,
      "ĠPost": 6958,
      "ĠAtt": 6959,
      "éĽª": 6960,
      "ĠSept": 6961,
      "é£ŀ": 6962,
      "cp": 6963,
      "roid": 6964,
      "nces": 6965,
      "plies": 6966,
      "åĩ½": 6967,
      "Ġcore": 6968,
      "ÃŃcul": 6969,
      "Ġstage": 6970,
      "æŁĵ": 6971,
      "ä¹ĺ": 6972,
      "ä¸ĢçĽ´": 6973,
      "Ġinvent": 6974,
      "Ġinstruct": 6975,
      "æ´ª": 6976,
      "ĠRE": 6977,
      "style": 6978,
      "amiento": 6979,
      "Ġrat": 6980,
      "ĠUp": 6981,
      "Ġfuer": 6982,
      "Ġrapid": 6983,
      "Ġdifferences": 6984,
      "éģĹ": 6985,
      "Ġcommer": 6986,
      "weight": 6987,
      "èī¦": 6988,
      "Ġmeasures": 6989,
      "equ": 6990,
      "åĲ³": 6991,
      "If": 6992,
      "xi": 6993,
      "eles": 6994,
      "ĠCr": 6995,
      "é¢Ĩå¯¼": 6996,
      "Ġhon": 6997,
      "Ġ#################################################################": 6998,
      "Ġmilitary": 6999,
      "Ġreasons": 7000,
      "æĿĢ": 7001,
      "mas": 7002,
      "Ġdiscovered": 7003,
      "Ġchoice": 7004,
      "Ġinfluence": 7005,
      "è¿ľ": 7006,
      "æľīä¸Ģ": 7007,
      "Ġalcohol": 7008,
      "agon": 7009,
      "Ġstarting": 7010,
      "ees": 7011,
      "ĠDi": 7012,
      "å®£å¸ĥ": 7013,
      "ĠAdditionally": 7014,
      "ulated": 7015,
      "ĠLin": 7016,
      "Ġpowerful": 7017,
      "Ġiter": 7018,
      "system": 7019,
      "çĶļèĩ³": 7020,
      "åŁ·": 7021,
      "Ġfruit": 7022,
      "é¡¿": 7023,
      "éĵ¾": 7024,
      "æ»¿": 7025,
      "yond": 7026,
      "Ġdescribed": 7027,
      "ĠRel": 7028,
      "Reg": 7029,
      "illing": 7030,
      "argo": 7031,
      "èģļ": 7032,
      "è½½": 7033,
      "Ġdurante": 7034,
      "Ġnothing": 7035,
      "è¨Ĭ": 7036,
      "ĠMc": 7037,
      "åıĳçĶŁ": 7038,
      "rote": 7039,
      "ĠPresident": 7040,
      "è³ĩæĸĻ": 7041,
      "wide": 7042,
      "atin": 7043,
      "Ġtold": 7044,
      "VID": 7045,
      "ilder": 7046,
      "ç´°": 7047,
      "unittest": 7048,
      "ĠSal": 7049,
      "assertRaises": 7050,
      "Ġinterface": 7051,
      "Ġneigh": 7052,
      "Ġyourself": 7053,
      "Ġflight": 7054,
      "Ġadvant": 7055,
      "Ġmoving": 7056,
      "Ġsyn": 7057,
      "produ": 7058,
      "Ġrecords": 7059,
      "Ġdictionary": 7060,
      "èĴĻåı¤": 7061,
      "Ġpiece": 7062,
      "uls": 7063,
      "Ġship": 7064,
      "ĠMark": 7065,
      "éĩĭ": 7066,
      "Ġwid": 7067,
      "ouch": 7068,
      "ĠSch": 7069,
      "ä¸Ńæĸĩ": 7070,
      "Ġfollowed": 7071,
      "Ġgenetic": 7072,
      "æĸ¯åĿ¦": 7073,
      "Ġexpression": 7074,
      "çļĨ": 7075,
      "çĶµå½±": 7076,
      "æĿ¿": 7077,
      "Ġtopic": 7078,
      "åħ±åĴĮåľĭ": 7079,
      "Ġenter": 7080,
      "ĠMart": 7081,
      "è©¦": 7082,
      "æİ¥åıĹ": 7083,
      "arios": 7084,
      "Ġinfo": 7085,
      "èİ±": 7086,
      "åı¦å¤ĸ": 7087,
      "All": 7088,
      "åĮĹéĥ¨": 7089,
      "ĠBlack": 7090,
      "éģĬæĪ²": 7091,
      "Ġnutrit": 7092,
      "ĠTherefore": 7093,
      "Ġbenefit": 7094,
      "ba": 7095,
      "Ġcomment": 7096,
      "Ġremember": 7097,
      "Ġrequirements": 7098,
      "DIR": 7099,
      "åı¥": 7100,
      "ria": 7101,
      "ä¹İ": 7102,
      "Response": 7103,
      "ç«¥": 7104,
      "ĠEngland": 7105,
      "Ġ'\\": 7106,
      "Ġbeyond": 7107,
      "next": 7108,
      "parser": 7109,
      "Ġarchitect": 7110,
      "Ġnutri": 7111,
      "tocol": 7112,
      "Ġenh": 7113,
      "Ġincorpor": 7114,
      "mem": 7115,
      "åªĴ": 7116,
      "ç§ĺ": 7117,
      "Ġprincipal": 7118,
      "Ġempty": 7119,
      "å®Įåħ¨": 7120,
      "support": 7121,
      "ĠPal": 7122,
      "more": 7123,
      "ĠArt": 7124,
      "ĠDO": 7125,
      "Ġbasis": 7126,
      "Ġdomain": 7127,
      "Ġpregn": 7128,
      "à¤": 7129,
      "åĪ»": 7130,
      "ä¸įèĥ½": 7131,
      "ĠCommun": 7132,
      "nodes": 7133,
      "ĠEspaÃ±a": 7134,
      "eno": 7135,
      "Ġimmune": 7136,
      "Ġweak": 7137,
      "ugg": 7138,
      "Ġarri": 7139,
      "Ġoperation": 7140,
      "Ġsupported": 7141,
      "Date": 7142,
      "No": 7143,
      "ture": 7144,
      "Ġopportunity": 7145,
      "ĠUsing": 7146,
      "show": 7147,
      "ĠClass": 7148,
      "Ġexposure": 7149,
      "care": 7150,
      "ç§ģ": 7151,
      "ĠWashington": 7152,
      "indow": 7153,
      "å¾·åľĭ": 7154,
      "alid": 7155,
      "éłĵ": 7156,
      "Ġeconomy": 7157,
      "æ±Ĺ": 7158,
      "IME": 7159,
      "ĠChinese": 7160,
      "Ġeveryone": 7161,
      "orial": 7162,
      "èĩªå·±çļĦ": 7163,
      "Ġestud": 7164,
      "çķ°": 7165,
      "å¸ķ": 7166,
      "lower": 7167,
      "ä¸´": 7168,
      "Ġstar": 7169,
      "Ġdrugs": 7170,
      "éºĹ": 7171,
      "ĠMich": 7172,
      "Parser": 7173,
      "æ¿Ģ": 7174,
      "ĠĠĠĠĠĠĠĠĠĠĠĠĠĠĠĠĠĠĠ": 7175,
      "æĸĹ": 7176,
      "ĠInternet": 7177,
      "obile": 7178,
      "Ġotros": 7179,
      "craft": 7180,
      "Ġund": 7181,
      "ä½Ķ": 7182,
      "idades": 7183,
      "Ġstrength": 7184,
      "ASA": 7185,
      "ĠAustralia": 7186,
      "otes": 7187,
      "ste": 7188,
      "llib": 7189,
      "Ġbrought": 7190,
      "DF": 7191,
      "Ġwat": 7192,
      "Ġtod": 7193,
      "æł¹æĵļ": 7194,
      "ustr": 7195,
      "Ġclick": 7196,
      "Ġfigure": 7197,
      "send": 7198,
      "rig": 7199,
      "ĠMex": 7200,
      "ographic": 7201,
      "Ġalgun": 7202,
      "åĪ©çĶ¨": 7203,
      "Ġteach": 7204,
      "raf": 7205,
      "åºĵ": 7206,
      "iox": 7207,
      "plications": 7208,
      "TO": 7209,
      "gent": 7210,
      "Ġgets": 7211,
      "zone": 7212,
      "åį»": 7213,
      "ima": 7214,
      "ync": 7215,
      "Ġcompletely": 7216,
      "Ġasked": 7217,
      "å¹³æĸ¹": 7218,
      "åĪ¶åº¦": 7219,
      "Ġut": 7220,
      "ilit": 7221,
      "Ġwatch": 7222,
      "success": 7223,
      "case": 7224,
      "olic": 7225,
      "Ġsigns": 7226,
      "Ġdegree": 7227,
      "New": 7228,
      "ĠSk": 7229,
      "sche": 7230,
      "fully": 7231,
      "Conn": 7232,
      "éĺ¿æĭī": 7233,
      "INE": 7234,
      "Ġpip": 7235,
      "è¯Ħ": 7236,
      "idas": 7237,
      "ĠDNA": 7238,
      "èĤ¡": 7239,
      "Ġglob": 7240,
      "Fact": 7241,
      "ĠHTML": 7242,
      "Ġtf": 7243,
      "Ġrise": 7244,
      "make": 7245,
      "ĠProf": 7246,
      "ĠNO": 7247,
      "å·¨": 7248,
      "fol": 7249,
      "Ġya": 7250,
      "derr": 7251,
      "Ġstrategies": 7252,
      "Ġinnov": 7253,
      "åħ±äº§": 7254,
      "ĠSant": 7255,
      "æĺ¾": 7256,
      "åľ°çĲĥ": 7257,
      "ialog": 7258,
      "Ġfundament": 7259,
      "Ġ::": 7260,
      "æĢ»ç»Ł": 7261,
      "porary": 7262,
      "Ġprofessional": 7263,
      "Ġlegal": 7264,
      "Ġequipment": 7265,
      "æĶ¿çŃĸ": 7266,
      "åĪº": 7267,
      "æ¨ĵ": 7268,
      "Module": 7269,
      "ĠApril": 7270,
      "EC": 7271,
      "Py": 7272,
      "normal": 7273,
      "Ġassum": 7274,
      "Ġstandards": 7275,
      "ï¼ĮãĢĬ": 7276,
      "ota": 7277,
      "åįĹéĥ¨": 7278,
      "ĠID": 7279,
      "Ġplt": 7280,
      "Ġfavor": 7281,
      "argv": 7282,
      "Ġjoint": 7283,
      "èģĶåĲĪ": 7284,
      "Ġstructures": 7285,
      "å¾Īå¤ļ": 7286,
      "Ġremoved": 7287,
      "çĲ´": 7288,
      "IB": 7289,
      "Ġsig": 7290,
      "å°¤": 7291,
      "Dict": 7292,
      "Ġbackground": 7293,
      "rowser": 7294,
      "ĠCounty": 7295,
      "æľĢæĹ©": 7296,
      "MIT": 7297,
      "æĢĿæĥ³": 7298,
      "æĸ·": 7299,
      "å¤§å¤ļ": 7300,
      "å±ĭ": 7301,
      "ober": 7302,
      "ÃŃo": 7303,
      "Ġsynt": 7304,
      "Ġabsor": 7305,
      "ĠDavid": 7306,
      "Ġheader": 7307,
      "åıĮ": 7308,
      "åľ°çĲĨ": 7309,
      "true": 7310,
      "Ġillness": 7311,
      "umps": 7312,
      "igen": 7313,
      "Ġhous": 7314,
      "Ġchain": 7315,
      "ĠHel": 7316,
      "ffer": 7317,
      "rupt": 7318,
      "ĠBook": 7319,
      "isis": 7320,
      "Ġmut": 7321,
      "Ġlanguages": 7322,
      "usion": 7323,
      "çĶ¢çĶŁ": 7324,
      "çį»": 7325,
      "Ġstatement": 7326,
      "ĠWrit": 7327,
      "device": 7328,
      "å½Ĵ": 7329,
      "############": 7330,
      "å¢¨": 7331,
      "ç¯ī": 7332,
      "éĽ£": 7333,
      "æ¥ļ": 7334,
      "vari": 7335,
      "ç¿Ĵ": 7336,
      "é¤ĺ": 7337,
      "AM": 7338,
      "ç½ª": 7339,
      "Ġmag": 7340,
      "æļ´": 7341,
      "ayer": 7342,
      "sql": 7343,
      "ivos": 7344,
      "DB": 7345,
      "sel": 7346,
      "è®¸å¤ļ": 7347,
      "Ġfully": 7348,
      "Ġincl": 7349,
      "ĠJuly": 7350,
      "she": 7351,
      "Ġri": 7352,
      "Ġexplore": 7353,
      "For": 7354,
      "Ġinsect": 7355,
      "Ġtox": 7356,
      "Ġ>=": 7357,
      "hist": 7358,
      "chain": 7359,
      "sole": 7360,
      "æ¬§æ´²": 7361,
      "Ġ$<<": 7362,
      "faces": 7363,
      "eed": 7364,
      "Ġfresh": 7365,
      "Node": 7366,
      "aled": 7367,
      "Ġdoct": 7368,
      "Ġorganization": 7369,
      "Ad": 7370,
      "ĠOut": 7371,
      "ĠJesus": 7372,
      "efore": 7373,
      "æŁı": 7374,
      "Ġmigr": 7375,
      "ille": 7376,
      "cons": 7377,
      "CK": 7378,
      "Ġpow": 7379,
      "ĠRev": 7380,
      "éľĩ": 7381,
      "è²ł": 7382,
      "Ġprotocol": 7383,
      "estamp": 7384,
      "éº¥": 7385,
      "éĬĢ": 7386,
      "Ġfriends": 7387,
      "åĳ³": 7388,
      "tras": 7389,
      "Ġlatest": 7390,
      "Ġcitiz": 7391,
      "Ġ'-": 7392,
      "connection": 7393,
      "asc": 7394,
      "Ġlambda": 7395,
      "å¾Ĳ": 7396,
      "Ġkil": 7397,
      "Ġhistorical": 7398,
      "Ġforward": 7399,
      "pool": 7400,
      "rt": 7401,
      "Ġfather": 7402,
      "èĩªæ²»": 7403,
      "Ġsav": 7404,
      "Ġincreases": 7405,
      "ĠAffero": 7406,
      "åĲ´": 7407,
      "Ġseparate": 7408,
      "ĠMal": 7409,
      "å±Ĩ": 7410,
      "[-": 7411,
      "Ġdownload": 7412,
      "æ»¡": 7413,
      "help": 7414,
      "but": 7415,
      "Ġantib": 7416,
      "Ġdomin": 7417,
      "Ġdied": 7418,
      "Ġtransfer": 7419,
      "UB": 7420,
      "Ġdecisions": 7421,
      "Ġband": 7422,
      "odo": 7423,
      "Ġreserved": 7424,
      "Ġremote": 7425,
      "åĦª": 7426,
      "Ġ\"%": 7427,
      "Ġletter": 7428,
      "æķĻæİĪ": 7429,
      "access": 7430,
      "ĠBas": 7431,
      "install": 7432,
      "æŃĲæ´²": 7433,
      "çĲĨè®º": 7434,
      "å¹³åĿĩ": 7435,
      "ç¼º": 7436,
      "iful": 7437,
      "åĬ¿": 7438,
      "åħ³ç³»": 7439,
      "Ġdefinition": 7440,
      "Ġmention": 7441,
      "Ġnue": 7442,
      "å½Ī": 7443,
      "æ··": 7444,
      "aste": 7445,
      "èĳī": 7446,
      "ĠåıĤèĢĥæĸĩçĮ®": 7447,
      "Ġflag": 7448,
      "Ġchallenge": 7449,
      "unque": 7450,
      "Ġgold": 7451,
      "Ġnotes": 7452,
      "Ġtherapy": 7453,
      "æĸŃ": 7454,
      "Ġround": 7455,
      "é®": 7456,
      "è¯Ĺ": 7457,
      "å¤©æĸĩ": 7458,
      "æ¤įçī©": 7459,
      "èĹ¥": 7460,
      "å·²ç»ı": 7461,
      "ä¸¤ä¸ª": 7462,
      "ael": 7463,
      "aign": 7464,
      "åĪĨåŃĲ": 7465,
      "Ġgoals": 7466,
      "Ġrich": 7467,
      "FAULT": 7468,
      "Ġmovie": 7469,
      "appy": 7470,
      "ĠImportError": 7471,
      "Ġmouth": 7472,
      "phas": 7473,
      "Che": 7474,
      "Ã¼": 7475,
      "oca": 7476,
      "Ġspeech": 7477,
      "èĪªç©º": 7478,
      "KEY": 7479,
      "Ġdirection": 7480,
      "Ġplaced": 7481,
      "Ġbalance": 7482,
      "aper": 7483,
      "rim": 7484,
      "OO": 7485,
      "Ġkeys": 7486,
      "ĠBase": 7487,
      "çį¨ç«ĭ": 7488,
      "é¦ĸæ¬¡": 7489,
      "ç¬¬ä¸Ģæ¬¡": 7490,
      "åŁºçĿ£": 7491,
      "Ġtechnologies": 7492,
      "Ġeasier": 7493,
      "CLUD": 7494,
      "çµķ": 7495,
      "å¥³æĢ§": 7496,
      "è®¾è®¡": 7497,
      "æ¬¾": 7498,
      "åįģäºĮ": 7499,
      "Ġdidn": 7500,
      "åĲĪä½ľ": 7501,
      "ORS": 7502,
      "Ġimplementation": 7503,
      "Ġencoding": 7504,
      "Ġcoming": 7505,
      "idge": 7506,
      "ĠChildren": 7507,
      "æ¥Ĭ": 7508,
      "puÃ©s": 7509,
      "Ġfinally": 7510,
      "åĳ½åĲį": 7511,
      "å°º": 7512,
      "bal": 7513,
      "PRE": 7514,
      "è¿«": 7515,
      "è«ĭ": 7516,
      "çĥı": 7517,
      "ç¦®": 7518,
      "åı¦ä¸Ģ": 7519,
      "ä¹ł": 7520,
      "æ´»åĭķ": 7521,
      "å¤ľ": 7522,
      "dim": 7523,
      "åħħ": 7524,
      "ibly": 7525,
      "Ġoffers": 7526,
      "æķ¦": 7527,
      "Ġnative": 7528,
      "èŀį": 7529,
      "Ġastr": 7530,
      "Ġnav": 7531,
      "apes": 7532,
      "Ġannual": 7533,
      "ä¹ĭåīį": 7534,
      "FOR": 7535,
      "Ġnet": 7536,
      "Ġsac": 7537,
      "Ġstories": 7538,
      "Ġconj": 7539,
      "Ġjournal": 7540,
      "Ġfa": 7541,
      "gin": 7542,
      "Ġdescribe": 7543,
      "Ġconsequ": 7544,
      "PC": 7545,
      "rael": 7546,
      "Ġtrade": 7547,
      "ç«¹": 7548,
      "Ġmathemat": 7549,
      "angle": 7550,
      "Ġanti": 7551,
      "ĠGovern": 7552,
      "Ġcities": 7553,
      "iat": 7554,
      "Ġcache": 7555,
      "å¯¶": 7556,
      "è¯»": 7557,
      "Ġball": 7558,
      "ribe": 7559,
      "Ġfear": 7560,
      "Ġearlier": 7561,
      "Ġmessages": 7562,
      "Ġalone": 7563,
      "ç§ĳåŃ¸": 7564,
      "NS": 7565,
      "æŃ¤å¤ĸ": 7566,
      "Ġnetworks": 7567,
      "Ġeffic": 7568,
      "ella": 7569,
      "Ġunivers": 7570,
      "__)": 7571,
      "ĠĠĠĠĠĠĠĠĠĠĠĠĠĠĠĠĠĠĠĠĠĠĠĠĠĠ": 7572,
      "ĠStudents": 7573,
      "aban": 7574,
      "æĸ°çļĦ": 7575,
      "åļ´": 7576,
      "Ġpromote": 7577,
      "Ġsistema": 7578,
      "ä½Ī": 7579,
      "è¿Ļä¸Ģ": 7580,
      "åº«": 7581,
      "ĠChristian": 7582,
      "eria": 7583,
      "æĪĲçļĦ": 7584,
      "Ġexists": 7585,
      "å£ĵ": 7586,
      "åħ¨çĲĥ": 7587,
      "ĠToday": 7588,
      "Ġmilk": 7589,
      "åĮħåĲ«": 7590,
      "Ġappears": 7591,
      "ĠTheir": 7592,
      "ĠBel": 7593,
      "Ġdisorder": 7594,
      "'ll": 7595,
      "æ³ģ": 7596,
      "åľ°ä½į": 7597,
      "real": 7598,
      "INT": 7599,
      "åı¬": 7600,
      "Ġlaws": 7601,
      "dist": 7602,
      "mult": 7603,
      "ĠEast": 7604,
      "Ġadjust": 7605,
      "ĠExt": 7606,
      "Ġhour": 7607,
      "results": 7608,
      "xygen": 7609,
      "Ġreligious": 7610,
      "éĢļéģİ": 7611,
      "ĠEstados": 7612,
      "Ġregions": 7613,
      "æĶ¹éĿ©": 7614,
      "Ġcombination": 7615,
      "pan": 7616,
      "åĿ¡": 7617,
      "ya": 7618,
      "Ġbreast": 7619,
      "PAT": 7620,
      "wait": 7621,
      "éĿĪ": 7622,
      "Ġgeneration": 7623,
      "Ġincome": 7624,
      "æķħäºĭ": 7625,
      "Read": 7626,
      "ĠTH": 7627,
      "ifies": 7628,
      "åĨ°": 7629,
      "Ġamb": 7630,
      "Ġmac": 7631,
      "ĠUnidos": 7632,
      "ĠBro": 7633,
      "æĥł": 7634,
      "resents": 7635,
      "Ġopportunities": 7636,
      "Ġmuy": 7637,
      "graph": 7638,
      "ifically": 7639,
      "]]": 7640,
      "plicit": 7641,
      "inder": 7642,
      "ĠPlan": 7643,
      "Ġclassroom": 7644,
      "Ġshell": 7645,
      "Ġmuscle": 7646,
      "Ġdouble": 7647,
      "zy": 7648,
      "ogen": 7649,
      "Ġcollab": 7650,
      "Ġreduced": 7651,
      "åĶ®": 7652,
      "Ġeight": 7653,
      "éłĪ": 7654,
      "Ġcuando": 7655,
      "CLUDING": 7656,
      "ä»·": 7657,
      "Ġevol": 7658,
      "redients": 7659,
      "Ġfindings": 7660,
      "headers": 7661,
      "Ġconsumption": 7662,
      "select": 7663,
      "æĪ·": 7664,
      "Ġupper": 7665,
      "Ġformed": 7666,
      "Ġresulting": 7667,
      "ĠWilliam": 7668,
      ".*": 7669,
      "ĠWindows": 7670,
      "é©Ĺ": 7671,
      "Ġgames": 7672,
      "Ġacadem": 7673,
      "Ġtemp": 7674,
      "gery": 7675,
      "tical": 7676,
      "çīĪæľ¬": 7677,
      "Ġgiving": 7678,
      "ĠHTTP": 7679,
      "Info": 7680,
      "Def": 7681,
      "åºĨ": 7682,
      "Ġidentified": 7683,
      "Ġconnected": 7684,
      "Ġelectricity": 7685,
      "Ġvision": 7686,
      "tab": 7687,
      "Ġmaster": 7688,
      ").__": 7689,
      "tree": 7690,
      "Ġtiene": 7691,
      "éĢĶ": 7692,
      "iembre": 7693,
      "Ġchance": 7694,
      "Ġbreath": 7695,
      "ĠOrgan": 7696,
      "Ġinternal": 7697,
      "ï¼Īï¼īï¼Į": 7698,
      "Ġhighest": 7699,
      "ä¿Ĺ": 7700,
      "wrap": 7701,
      "rows": 7702,
      "Ġhappen": 7703,
      "Ġpas": 7704,
      "å¤§éĻ¸": 7705,
      "æ¼¸": 7706,
      "Ġwrong": 7707,
      "Ġnor": 7708,
      "('/": 7709,
      "æŃ¸": 7710,
      "isted": 7711,
      "æ¦®": 7712,
      "CP": 7713,
      "è½¯": 7714,
      "west": 7715,
      "å¿ł": 7716,
      "Ġlearned": 7717,
      "ĠEng": 7718,
      "ĠĠĉ": 7719,
      "Ġuno": 7720,
      "èĪĬ": 7721,
      "ship": 7722,
      "Ġwidth": 7723,
      "inger": 7724,
      "ĠArch": 7725,
      "Ġguide": 7726,
      "ĠEvery": 7727,
      "Ġtechnique": 7728,
      "çĭ¬ç«ĭ": 7729,
      ":%": 7730,
      "éĵģè·¯": 7731,
      "hash": 7732,
      "å°įæĸ¼": 7733,
      "Ġmetal": 7734,
      "Ġplastic": 7735,
      "Ġfinding": 7736,
      "Ġmanage": 7737,
      "]:": 7738,
      "Out": 7739,
      "iler": 7740,
      "Ġexhib": 7741,
      "Ġhash": 7742,
      "ugar": 7743,
      "æ³½": 7744,
      "ĠYes": 7745,
      "olar": 7746,
      "ĠSociety": 7747,
      "èģ¯åĲĪ": 7748,
      "nes": 7749,
      "Ġpermission": 7750,
      "æĵģ": 7751,
      "remove": 7752,
      "Ġwoman": 7753,
      "icies": 7754,
      "ä»¥ä¸ĭ": 7755,
      "Ġæĸ°": 7756,
      "pute": 7757,
      "ç«ĭæ³ķ": 7758,
      "laces": 7759,
      "ĠMedic": 7760,
      "Ġthousands": 7761,
      "æľŁéĸĵ": 7762,
      "å¶": 7763,
      "Ġgal": 7764,
      "Ġprec": 7765,
      "æĪĸèĢħ": 7766,
      "clusion": 7767,
      "He": 7768,
      "Ġtuple": 7769,
      "éı": 7770,
      "Ġrecon": 7771,
      "NO": 7772,
      "aped": 7773,
      "udd": 7774,
      "æĸĩåŃĹ": 7775,
      "ĠLO": 7776,
      "æı´": 7777,
      "ĠåıĥèĢĥ": 7778,
      "åŃĻ": 7779,
      "Ġsetup": 7780,
      "Ġgrant": 7781,
      "section": 7782,
      "ĠEV": 7783,
      "Ġrelevant": 7784,
      "æľĢä½³": 7785,
      "ategory": 7786,
      "Ġfair": 7787,
      "Ġapi": 7788,
      "ball": 7789,
      "lers": 7790,
      "è£Ķ": 7791,
      "Ġacqu": 7792,
      "éŁĵåľĭ": 7793,
      "ĠChurch": 7794,
      "æĺ¯çĶ±": 7795,
      "`.": 7796,
      "å¥ı": 7797,
      "çľ¼": 7798,
      "cember": 7799,
      "iant": 7800,
      "Ġsurvey": 7801,
      "éģĩ": 7802,
      "ä¸»æķĻ": 7803,
      "eras": 7804,
      "Ġmic": 7805,
      "Ġ'__": 7806,
      "Ġattribute": 7807,
      "Ġcomputers": 7808,
      "Ġrelationships": 7809,
      "Ġtemperatures": 7810,
      "Ġwrote": 7811,
      "å¥ī": 7812,
      "ĠJanuary": 7813,
      "lege": 7814,
      "èģŀ": 7815,
      "posit": 7816,
      "äº§çĶŁ": 7817,
      "Ġsi": 7818,
      "å¹ķ": 7819,
      "Ġplot": 7820,
      "åĨµ": 7821,
      "åĭĿ": 7822,
      "ean": 7823,
      "sim": 7824,
      "Ġnest": 7825,
      "ipe": 7826,
      "oted": 7827,
      "Ġintelligence": 7828,
      "ĠAir": 7829,
      "éĽĸçĦ¶": 7830,
      "Ġworked": 7831,
      "Ġiniti": 7832,
      "Ġoc": 7833,
      "Ġ),": 7834,
      "exists": 7835,
      "ä½¿å¾Ĺ": 7836,
      "åħ±åĲĮ": 7837,
      "ç£ģ": 7838,
      "ĠGreen": 7839,
      "åĬŁèĥ½": 7840,
      "Ġpicture": 7841,
      "Ġbottom": 7842,
      "rief": 7843,
      "Ġboard": 7844,
      "Ġexperiences": 7845,
      "xiety": 7846,
      "Ġaccom": 7847,
      "transl": 7848,
      "hab": 7849,
      "iring": 7850,
      "ĠUK": 7851,
      "åĪĹè¡¨": 7852,
      "ĠGroup": 7853,
      "ä¿ĿæĬ¤": 7854,
      "ĠSpanish": 7855,
      "è´µ": 7856,
      "åĪĳ": 7857,
      "Ġocean": 7858,
      "Ġforces": 7859,
      "ĠMor": 7860,
      "å¦»": 7861,
      "---": 7862,
      "Ġeducational": 7863,
      "Ġdefine": 7864,
      "æī¾": 7865,
      "ĠVol": 7866,
      "ç¹ģ": 7867,
      "iling": 7868,
      "åŁ¹": 7869,
      "å²©": 7870,
      "Ġrey": 7871,
      "Ġradio": 7872,
      "ĠMicro": 7873,
      "lick": 7874,
      "Ġpresence": 7875,
      "Ġlinks": 7876,
      "Ġvitamin": 7877,
      "çĽ¸éĹľ": 7878,
      "ĠConf": 7879,
      "éį": 7880,
      "è´£": 7881,
      "Ãºb": 7882,
      "åİŁåŃĲ": 7883,
      "Ġfilm": 7884,
      "ĠHouse": 7885,
      "ĠLaw": 7886,
      "åı«": 7887,
      "æ¥¼": 7888,
      "Ġmeeting": 7889,
      "Ġcreation": 7890,
      "Ġsurpr": 7891,
      "claim": 7892,
      "Ġsecure": 7893,
      "ĠNASA": 7894,
      "Ġleng": 7895,
      "Ġrespond": 7896,
      "Ġreducing": 7897,
      "antic": 7898,
      "ovember": 7899,
      "Ġproperly": 7900,
      "ĠGeorge": 7901,
      "views": 7902,
      "ĠRoman": 7903,
      "udo": 7904,
      "/>.": 7905,
      "ride": 7906,
      "'].": 7907,
      "mov": 7908,
      "obl": 7909,
      "ERS": 7910,
      "Ġbelief": 7911,
      "sv": 7912,
      "Ġmel": 7913,
      "Ġusage": 7914,
      "éĥİ": 7915,
      "bra": 7916,
      "ç»ĵæŀĦ": 7917,
      "Ġnuclear": 7918,
      "ĠDevelopment": 7919,
      "Ġpret": 7920,
      "Ġsets": 7921,
      "Ġseconds": 7922,
      "metadata": 7923,
      "Ġpad": 7924,
      "ãĢĤãĢį": 7925,
      "Ġshared": 7926,
      "Ġfert": 7927,
      "Ġcontrast": 7928,
      "Run": 7929,
      "Ġcausing": 7930,
      "iform": 7931,
      "çĤ¸": 7932,
      "ĠFood": 7933,
      "Ġsql": 7934,
      "\"):": 7935,
      "Ġindustrial": 7936,
      "Ġdin": 7937,
      "çı¾ä»£": 7938,
      "Ġwindow": 7939,
      "resource": 7940,
      "ĠUnder": 7941,
      "æŃ»äº¡": 7942,
      "Ġriver": 7943,
      "Ġdataset": 7944,
      "pay": 7945,
      "ĠCat": 7946,
      "Ġmaximum": 7947,
      "Ġdoll": 7948,
      "Ġvegetables": 7949,
      "Ġurban": 7950,
      "Ġcycle": 7951,
      "ĠAv": 7952,
      "Ġworth": 7953,
      "Ġrelatively": 7954,
      "aud": 7955,
      "rd": 7956,
      "Ġtoward": 7957,
      "ĠMac": 7958,
      "CI": 7959,
      "æĻĭ": 7960,
      "comple": 7961,
      "Ġsecret": 7962,
      "Ġattract": 7963,
      "ĠFinally": 7964,
      "Ġcab": 7965,
      "Ġgarden": 7966,
      "Ġtissue": 7967,
      "èĲĬ": 7968,
      "Ġprogramming": 7969,
      "oded": 7970,
      "Ġevolution": 7971,
      "Ġhappens": 7972,
      "Ġtrust": 7973,
      "Ġdepending": 7974,
      "Ġpiz": 7975,
      "çĽ´åĪ°": 7976,
      "sort": 7977,
      "Ġreports": 7978,
      "ç½Ĺæĸ¯": 7979,
      "èĹĿè¡ĵ": 7980,
      "look": 7981,
      "ĠGen": 7982,
      "oting": 7983,
      "Ġdefinit": 7984,
      "ologist": 7985,
      "ĠOctober": 7986,
      "Ġprefer": 7987,
      "Ġoccup": 7988,
      "Ġbone": 7989,
      "cious": 7990,
      "æķĳ": 7991,
      "errors": 7992,
      "éŃļ": 7993,
      "brero": 7994,
      "execute": 7995,
      "ĠJava": 7996,
      "Ġparameter": 7997,
      "ĠAny": 7998,
      "Ġsuggests": 7999,
      "Ġamounts": 8000,
      "domain": 8001,
      "What": 8002,
      "pers": 8003,
      "å»ºç¯ī": 8004,
      "èĥ½å¤": 8005,
      "ĠAsia": 8006,
      "ĠSeptember": 8007,
      "åı¶": 8008,
      "anging": 8009,
      "report": 8010,
      "ala": 8011,
      "lica": 8012,
      "compat": 8013,
      "æ´»åĬ¨": 8014,
      "è²¬": 8015,
      "Ġcapacity": 8016,
      "dest": 8017,
      "åĪĨå¸ĥ": 8018,
      "Ġ||": 8019,
      "èĩºåĮĹ": 8020,
      "éĩįæĸ°": 8021,
      "Ġheaders": 8022,
      "oz": 8023,
      "Ġtooth": 8024,
      "register": 8025,
      "Ġfailure": 8026,
      "Ġmedicine": 8027,
      "éĭ": 8028,
      "Ġdent": 8029,
      "ĠService": 8030,
      "Ġproduc": 8031,
      "éĿ¢ç§¯": 8032,
      "Ġfailed": 8033,
      "Ġvul": 8034,
      "Ġchanging": 8035,
      "Ġlinked": 8036,
      "çĤºäºĨ": 8037,
      "å«": 8038,
      "ether": 8039,
      "uses": 8040,
      "present": 8041,
      "éĩĬ": 8042,
      "sol": 8043,
      "req": 8044,
      "å®ľ": 8045,
      "åħ¬è·¯": 8046,
      "æĬµ": 8047,
      "æ¦Ĥå¿µ": 8048,
      "éļİ": 8049,
      "ĠSocial": 8050,
      "æ²ĥ": 8051,
      "Ġdecades": 8052,
      "è¿ģ": 8053,
      "èĤī": 8054,
      "å»ī": 8055,
      "++": 8056,
      "Ġusername": 8057,
      "Ġvary": 8058,
      "Ġvez": 8059,
      "State": 8060,
      "rum": 8061,
      "ĠAssociation": 8062,
      "æĪ¶": 8063,
      "ç¬¬åĽĽ": 8064,
      "Ġeventually": 8065,
      "Ġcomenz": 8066,
      "ĠJames": 8067,
      "Ġeggs": 8068,
      "eve": 8069,
      "Ġserve": 8070,
      "ĠIsrael": 8071,
      ")):": 8072,
      "fn": 8073,
      "ĠProv": 8074,
      "è¼¯": 8075,
      "On": 8076,
      "è´Ł": 8077,
      "ned": 8078,
      "ÃŃf": 8079,
      "ä¿¡æģ¯": 8080,
      "ĠJapanese": 8081,
      "Ġdie": 8082,
      "As": 8083,
      "ĠUSE": 8084,
      "Ġrefers": 8085,
      "Ġtreated": 8086,
      "æ¶²": 8087,
      "é½Ĳ": 8088,
      "enty": 8089,
      "Factory": 8090,
      "platform": 8091,
      "æ¡¥": 8092,
      "Ġestimated": 8093,
      "Ġqual": 8094,
      "Ãºl": 8095,
      "ĠQue": 8096,
      "Ġpieces": 8097,
      "Ġoxygen": 8098,
      "å®ĺæĸ¹": 8099,
      "Ġartificial": 8100,
      "ĠMary": 8101,
      "Ġspring": 8102,
      "éłĲ": 8103,
      "Ġtrab": 8104,
      "reedom": 8105,
      "ĠMA": 8106,
      "Ġcontract": 8107,
      "Ġkm": 8108,
      "ç¾ħæĸ¯": 8109,
      "ĠSun": 8110,
      "ĠForm": 8111,
      "CS": 8112,
      "learn": 8113,
      "Ġking": 8114,
      "Ġcounter": 8115,
      "å®«": 8116,
      "Ġprefix": 8117,
      "Ġserial": 8118,
      "éĢ£çµĲ": 8119,
      "ICE": 8120,
      "äººé¡ŀ": 8121,
      "Trans": 8122,
      "Des": 8123,
      "çłģ": 8124,
      "æľŁéĹ´": 8125,
      "äº¨": 8126,
      "null": 8127,
      "Ġstaff": 8128,
      "åĨ·": 8129,
      "åĪĨåĪ¥": 8130,
      "çĶŁäº§": 8131,
      "semb": 8132,
      "raint": 8133,
      "æ½®": 8134,
      "Ġfemale": 8135,
      "bert": 8136,
      "Ġstored": 8137,
      "ĠPor": 8138,
      "Ġspect": 8139,
      "poses": 8140,
      "éľį": 8141,
      "Ġdestroy": 8142,
      "æııè¿°": 8143,
      "free": 8144,
      "ĠStep": 8145,
      "Ġplanning": 8146,
      "åıĸå¾Ĺ": 8147,
      "Ġcustomer": 8148,
      ".')": 8149,
      "alog": 8150,
      "Ġnodes": 8151,
      "ä¼Ĳ": 8152,
      "tools": 8153,
      "Ġstri": 8154,
      "åĲİæĿ¥": 8155,
      "lass": 8156,
      "rot": 8157,
      "èĢĮä¸Ķ": 8158,
      "manager": 8159,
      "ĠPhil": 8160,
      "ĠScient": 8161,
      "è¿Ļç§į": 8162,
      "å·²ç¶ĵ": 8163,
      "Ġtiem": 8164,
      "ĠFore": 8165,
      "å§Ķåĵ¡æľĥ": 8166,
      "Ġvill": 8167,
      "çĽ£": 8168,
      "CONF": 8169,
      "elines": 8170,
      "Ġä¸Ń": 8171,
      "ponents": 8172,
      "Ġmajority": 8173,
      "ĠThus": 8174,
      "called": 8175,
      "æĭħ": 8176,
      "è¡ĮçļĦ": 8177,
      "Ġprovin": 8178,
      "è´¥": 8179,
      "eration": 8180,
      "Ġflex": 8181,
      "required": 8182,
      "environ": 8183,
      "ĠMuseum": 8184,
      "ĠBen": 8185,
      "Ġframe": 8186,
      "ĠFrancis": 8187,
      ")ï¼Į": 8188,
      "Qu": 8189,
      "ĠLess": 8190,
      "èĽĭ": 8191,
      "ĠCOPY": 8192,
      "Ġsplit": 8193,
      "éĻ¶": 8194,
      "Ġgene": 8195,
      "=(": 8196,
      "uce": 8197,
      "åĪĨæŀĲ": 8198,
      "Ġfamous": 8199,
      "Ġletters": 8200,
      "Ġcolors": 8201,
      "verb": 8202,
      "çİ°ä»£": 8203,
      "éª¨": 8204,
      "umin": 8205,
      "Ġhomes": 8206,
      "Ġhuge": 8207,
      "éģº": 8208,
      "Ã©l": 8209,
      "rew": 8210,
      "Ġfab": 8211,
      "thread": 8212,
      "éº¦": 8213,
      "ĠCollege": 8214,
      "Ġhun": 8215,
      "Ġresol": 8216,
      "Ġaim": 8217,
      "çĬ¯": 8218,
      "Event": 8219,
      "Ġtodo": 8220,
      "Ġextremely": 8221,
      "pha": 8222,
      "Ġexactly": 8223,
      "acts": 8224,
      "ä»ĸåľ¨": 8225,
      "zing": 8226,
      "Ġgave": 8227,
      "Ġrepresents": 8228,
      "cipl": 8229,
      "åģ¥": 8230,
      "BU": 8231,
      "generate": 8232,
      "éĺ¶": 8233,
      "Ġraised": 8234,
      "cop": 8235,
      "temp": 8236,
      "Ġbud": 8237,
      "Ġplans": 8238,
      "Ġlle": 8239,
      "una": 8240,
      "Ġphen": 8241,
      "groups": 8242,
      ".\")": 8243,
      "ternal": 8244,
      "éļ¾": 8245,
      "total": 8246,
      "ĠlÃŃ": 8247,
      "åģ¶": 8248,
      "Ġshowed": 8249,
      "EST": 8250,
      "éĢĥ": 8251,
      "Ġsch": 8252,
      "icated": 8253,
      "TR": 8254,
      "Ġaf": 8255,
      "ä¸ĺ": 8256,
      "ĠDec": 8257,
      "ĠsetUp": 8258,
      "ĠPress": 8259,
      "å¾µ": 8260,
      "Ġdrive": 8261,
      "setup": 8262,
      "LA": 8263,
      "Ġcomprehens": 8264,
      "ĠTur": 8265,
      "Ġ()": 8266,
      "Ġimmediately": 8267,
      "Ġotherwise": 8268,
      "modules": 8269,
      "ĠDem": 8270,
      "fs": 8271,
      "ulum": 8272,
      "startswith": 8273,
      "Le": 8274,
      "Ġcogn": 8275,
      "ĠEu": 8276,
      "Ġsolutions": 8277,
      "Ġbuildings": 8278,
      "æ¹¾": 8279,
      "ä½įç½®": 8280,
      "Ġsexual": 8281,
      "TYPE": 8282,
      "Ġtum": 8283,
      "prov": 8284,
      "Ġhair": 8285,
      "CU": 8286,
      "ĠItal": 8287,
      "bruary": 8288,
      "Ġexternos": 8289,
      "aint": 8290,
      "æľĿé²ľ": 8291,
      "éĵ¶": 8292,
      "ycl": 8293,
      "çĳª": 8294,
      "ris": 8295,
      "ĠDA": 8296,
      "è¿Ķ": 8297,
      "åºĦ": 8298,
      "Ġglass": 8299,
      "è»Ł": 8300,
      "Ġbelieved": 8301,
      "åŃĶ": 8302,
      "Ġtrace": 8303,
      "Ġexcess": 8304,
      "hesis": 8305,
      "æ®ĸæ°ĳ": 8306,
      "Ġfaster": 8307,
      "ĠUnion": 8308,
      "ĠMad": 8309,
      "èĤ¯": 8310,
      "Ġmission": 8311,
      "Ġcere": 8312,
      "Ġ\"\"": 8313,
      "éģ·": 8314,
      "Ã±o": 8315,
      "Ġcontinued": 8316,
      "Bu": 8317,
      "ini": 8318,
      "æĭĶ": 8319,
      "Ġauthors": 8320,
      "Ġliqu": 8321,
      "è·Ł": 8322,
      "Ġcollections": 8323,
      "]))": 8324,
      "ä¸¥": 8325,
      "Ġperhaps": 8326,
      "Ġready": 8327,
      "Ġpizza": 8328,
      "Ġsand": 8329,
      "ald": 8330,
      "ĠDirect": 8331,
      "Ġelev": 8332,
      "âĢĿ,": 8333,
      "Ġstrings": 8334,
      "ĠDecember": 8335,
      "Ġta": 8336,
      "Ġgrup": 8337,
      "Ġdogs": 8338,
      "stdout": 8339,
      "ĠNort": 8340,
      "Ġmit": 8341,
      "ĠImper": 8342,
      "Ġdepression": 8343,
      "Ġsong": 8344,
      "ç»Ŀ": 8345,
      "Ġpueden": 8346,
      "wd": 8347,
      "Ġslight": 8348,
      "Check": 8349,
      "å°ıèªª": 8350,
      "Ġseed": 8351,
      "isation": 8352,
      "ĠcomÃºn": 8353,
      "ĠOTHER": 8354,
      "Ġkid": 8355,
      "Ġselected": 8356,
      "%ãĢĤ": 8357,
      "çĶĺ": 8358,
      "Ġfrag": 8359,
      "Ġauthent": 8360,
      "Ġhop": 8361,
      "å¹´èĩ³": 8362,
      "Ġadding": 8363,
      "Ġcru": 8364,
      "åħĦ": 8365,
      "ĠRun": 8366,
      "æ´ŀ": 8367,
      "Ġspent": 8368,
      "Ġstim": 8369,
      "ĠHuman": 8370,
      "De": 8371,
      "tmp": 8372,
      "berg": 8373,
      "æį¢": 8374,
      "æĵĶä»»": 8375,
      "Equ": 8376,
      "å¥´": 8377,
      "åİĭ": 8378,
      "meta": 8379,
      "uzz": 8380,
      "ifest": 8381,
      "åĬª": 8382,
      "Ġwidely": 8383,
      "Ġcommands": 8384,
      "éŁ©": 8385,
      "ups": 8386,
      "Ġdisorders": 8387,
      "æĨ²": 8388,
      "ĠtÃ©r": 8389,
      "ä¹¾": 8390,
      "Ġcharge": 8391,
      "added": 8392,
      "Ġrequests": 8393,
      "åĨ³å®ļ": 8394,
      "Ġalternative": 8395,
      "bytes": 8396,
      "Ge": 8397,
      "kes": 8398,
      "Ġ],": 8399,
      "argets": 8400,
      "Ġfeeling": 8401,
      "ĠAcadem": 8402,
      "inas": 8403,
      "Ġbed": 8404,
      "Ġformer": 8405,
      "æĹĭ": 8406,
      "Ġdtype": 8407,
      "åľ°çļĦ": 8408,
      "Ġscen": 8409,
      "è§Ĵèī²": 8410,
      "%ï¼Į": 8411,
      "Ġpod": 8412,
      "Ġpollution": 8413,
      "Ġseven": 8414,
      "ç³ĸ": 8415,
      "ulo": 8416,
      "åį±": 8417,
      "åħĭæĸ¯": 8418,
      "Ġestablish": 8419,
      "Ġ#############################################################################": 8420,
      "çĲĨè«ĸ": 8421,
      "scale": 8422,
      "bi": 8423,
      "Ġperman": 8424,
      "Ġprepar": 8425,
      "engine": 8426,
      "virt": 8427,
      "Ġsocket": 8428,
      "ĠSource": 8429,
      "æĿ¨": 8430,
      "crete": 8431,
      "Ġallowing": 8432,
      "Ġatmosphere": 8433,
      "é±": 8434,
      "éģ¿": 8435,
      "Ġcategory": 8436,
      "Ġcalls": 8437,
      "Command": 8438,
      "rier": 8439,
      "ĠFort": 8440,
      "ouncil": 8441,
      "iverse": 8442,
      "Ġwelcome": 8443,
      "Ġenable": 8444,
      "ĠSH": 8445,
      "Ġelimin": 8446,
      "alla": 8447,
      "Ġadvanced": 8448,
      "ĠTime": 8449,
      "é©»": 8450,
      "Ġejempl": 8451,
      "Ġbecoming": 8452,
      "æī§": 8453,
      "æĹ¶ä»£": 8454,
      "Ġrisks": 8455,
      "Ġsamples": 8456,
      "Ġspirit": 8457,
      "Ġdirector": 8458,
      "çĶ¨äºİ": 8459,
      "Ġescrit": 8460,
      "Ġscreen": 8461,
      "Message": 8462,
      "Ġenero": 8463,
      "ander": 8464,
      "ĠNovember": 8465,
      "Ġorganic": 8466,
      "oli": 8467,
      "Ġpel": 8468,
      "ĠEnlaces": 8469,
      "logger": 8470,
      "SH": 8471,
      "éĩįè¦ģçļĦ": 8472,
      "'''": 8473,
      "Ġmissing": 8474,
      "ĠTwo": 8475,
      "LL": 8476,
      "Ġchronic": 8477,
      "è¯ĳ": 8478,
      "åŃ¸çĶŁ": 8479,
      "iments": 8480,
      "Ġjul": 8481,
      "ĠSpace": 8482,
      "Ġflat": 8483,
      "Ġgetattr": 8484,
      "Ġowners": 8485,
      "åħ©åĢĭ": 8486,
      "ptions": 8487,
      "Client": 8488,
      "Ġemphas": 8489,
      "çĽ¸åĲĮ": 8490,
      "Ġhimself": 8491,
      "æ±½": 8492,
      "include": 8493,
      "èĳ£": 8494,
      "Ġradiation": 8495,
      "æ³ī": 8496,
      "Ġregarding": 8497,
      "Ġvirtual": 8498,
      "Fr": 8499,
      "ocation": 8500,
      "è«¸": 8501,
      "æĺł": 8502,
      "exception": 8503,
      "éĽľ": 8504,
      "çıł": 8505,
      "PRO": 8506,
      "aker": 8507,
      "Ġpartners": 8508,
      "login": 8509,
      "åľĭçİĭ": 8510,
      "ologists": 8511,
      "ĠFrance": 8512,
      "company": 8513,
      "ĠLanguage": 8514,
      "Ġpopulations": 8515,
      "Ġhtml": 8516,
      "åħ±äº§åħļ": 8517,
      "Ġattributes": 8518,
      "åĶ¯ä¸Ģ": 8519,
      "Ġconv": 8520,
      "èĻİ": 8521,
      "Ġcommercial": 8522,
      "Ġrenew": 8523,
      "Ġrealiz": 8524,
      "Ġdynam": 8525,
      "Ġanalyze": 8526,
      "Ġblocks": 8527,
      "Ġinstrument": 8528,
      "GL": 8529,
      "ructure": 8530,
      "éģ¸èĪī": 8531,
      "ĠBoth": 8532,
      "ĠHen": 8533,
      "èµ¤": 8534,
      "æľĥèŃ°": 8535,
      "Ġbodies": 8536,
      "åŁĥåıĬ": 8537,
      "roke": 8538,
      "èĳ¡": 8539,
      "ĠGermany": 8540,
      "ĠCle": 8541,
      "obi": 8542,
      "Ġphr": 8543,
      "åĨĽäºĭ": 8544,
      "Ġtrend": 8545,
      "Ġcredit": 8546,
      "å¾ħ": 8547,
      "CD": 8548,
      "è¾ĵ": 8549,
      "èħ¦": 8550,
      "ĠRich": 8551,
      "child": 8552,
      "Ġiron": 8553,
      "Ġnerv": 8554,
      "æĭį": 8555,
      "BA": 8556,
      "Ġgar": 8557,
      "æľīéĻĲ": 8558,
      "èĥľ": 8559,
      "å¤§éĻĨ": 8560,
      "Ġdangerous": 8561,
      "iana": 8562,
      "Ġrecommended": 8563,
      "éĻĦè¿ĳ": 8564,
      "Ġpoly": 8565,
      "ifying": 8566,
      "æĬĢè¡ĵ": 8567,
      "éĹ»": 8568,
      "Ġreplace": 8569,
      "çļĦåĲį": 8570,
      "å¾½": 8571,
      "aph": 8572,
      "ĠStand": 8573,
      "'ve": 8574,
      "ograf": 8575,
      "gypt": 8576,
      "uras": 8577,
      "urity": 8578,
      "Ġlooks": 8579,
      "Ġperspect": 8580,
      "æ§į": 8581,
      "cos": 8582,
      "Ġsounds": 8583,
      "ogr": 8584,
      "ãĢįãĢģ": 8585,
      "Ġsmart": 8586,
      "åĲĽä¸»": 8587,
      "Ġtal": 8588,
      "Ġunable": 8589,
      "ĠWhe": 8590,
      "hi": 8591,
      "èĥ½åĬĽ": 8592,
      "iding": 8593,
      "non": 8594,
      "well": 8595,
      "æĭ¥": 8596,
      "è²¡": 8597,
      "çĩķ": 8598,
      "ĠManagement": 8599,
      "Ġfrequency": 8600,
      "è£ģ": 8601,
      "Dis": 8602,
      "ĠMet": 8603,
      "Ġdigest": 8604,
      "Ġsignificantly": 8605,
      "ĠJournal": 8606,
      "æ¸¡": 8607,
      "å®īåħ¨": 8608,
      "=<<": 8609,
      "cio": 8610,
      "èį¯": 8611,
      "Ġsalt": 8612,
      "hem": 8613,
      "éĿł": 8614,
      "Ġinfections": 8615,
      "mm": 8616,
      "Ġemotional": 8617,
      "Ġwall": 8618,
      "Ġé«ĺ": 8619,
      "æķ°æį®": 8620,
      "ĠAbout": 8621,
      "Ġintroduced": 8622,
      "Ġoffice": 8623,
      "uj": 8624,
      "Ġseeds": 8625,
      "æ©ĭ": 8626,
      "frame": 8627,
      "ĠMass": 8628,
      "å°Ĭ": 8629,
      "æĪ´": 8630,
      "Ġresistance": 8631,
      "æĽ¿": 8632,
      "Ġxml": 8633,
      "Ġeffectively": 8634,
      "ĠnÃºmero": 8635,
      "è¼ķ": 8636,
      "Att": 8637,
      "Ġconvers": 8638,
      "Ġcreates": 8639,
      "Tests": 8640,
      "Ġsolve": 8641,
      "Ġheavy": 8642,
      "å®Ŀ": 8643,
      "ĠPhys": 8644,
      "Ġorganizations": 8645,
      "Ġcitizens": 8646,
      "Ġfrequently": 8647,
      "Ġstrategy": 8648,
      "åı¤ä»£": 8649,
      "ancia": 8650,
      "å¤©çļĩ": 8651,
      "HTTP": 8652,
      "Logger": 8653,
      "oul": 8654,
      "Ġdistinct": 8655,
      "este": 8656,
      "Ġperformed": 8657,
      "Ġbytes": 8658,
      "Ġcharacteristics": 8659,
      "Ġdiscover": 8660,
      "Ġarticles": 8661,
      "Size": 8662,
      "decode": 8663,
      "cor": 8664,
      "Ġtour": 8665,
      "reci": 8666,
      "Ġshall": 8667,
      "isf": 8668,
      "Ġsolo": 8669,
      "Ġequival": 8670,
      "{}": 8671,
      "Ġsed": 8672,
      "åĤ³çµ±": 8673,
      "handler": 8674,
      "æĿĤ": 8675,
      "ourses": 8676,
      "dirname": 8677,
      "job": 8678,
      "ttp": 8679,
      "æįķ": 8680,
      "ĠCongress": 8681,
      "liter": 8682,
      "imer": 8683,
      "Element": 8684,
      "Ġ'--": 8685,
      "ierra": 8686,
      "Ġloan": 8687,
      "åĬłæĭ¿": 8688,
      "cat": 8689,
      "åĬ¨çī©": 8690,
      "Ġengineering": 8691,
      "ä¼ĳ": 8692,
      "Ġinvolve": 8693,
      "Line": 8694,
      "ii": 8695,
      "ERR": 8696,
      "iced": 8697,
      "Ġrestrict": 8698,
      "éº»": 8699,
      "achine": 8700,
      "Group": 8701,
      "ĠPac": 8702,
      "ĠMiss": 8703,
      "å´ĩ": 8704,
      "Ġpull": 8705,
      "unicode": 8706,
      "çİĭåĽ½": 8707,
      "Ġscore": 8708,
      "æħ¶": 8709,
      "Ġlabels": 8710,
      "Ġmale": 8711,
      "icks": 8712,
      "æ¨¹": 8713,
      "ĠBased": 8714,
      "æıĽ": 8715,
      "ç²Ĵ": 8716,
      "Ġaspects": 8717,
      "éģį": 8718,
      "èıľ": 8719,
      "Inter": 8720,
      "Ġisland": 8721,
      "å¨ľ": 8722,
      "Ġhear": 8723,
      "Ġtit": 8724,
      "Ġanxiety": 8725,
      "æİĮ": 8726,
      "rence": 8727,
      "Ġsolid": 8728,
      "è¶³çĲĥ": 8729,
      "greg": 8730,
      "ç¬¬äºĮæ¬¡": 8731,
      "Ġcampaign": 8732,
      "Ġbot": 8733,
      "Ġdenomin": 8734,
      "BN": 8735,
      "ĠId": 8736,
      "ĠBat": 8737,
      "mes": 8738,
      "ĠSQL": 8739,
      "åĨ¬": 8740,
      "Ġcompleted": 8741,
      "Ġexperts": 8742,
      "Ġfebrero": 8743,
      "Ġmismo": 8744,
      "Ġindependent": 8745,
      "æ°§åĮĸ": 8746,
      "PATH": 8747,
      "Ġmoved": 8748,
      "framework": 8749,
      "kw": 8750,
      "rat": 8751,
      "Ġè¥¿": 8752,
      "Ġprem": 8753,
      "æĦıå¤§åĪ©": 8754,
      "Ġchurch": 8755,
      "aje": 8756,
      "Ġconducted": 8757,
      "Ġidentity": 8758,
      "è®¡åĪĴ": 8759,
      "Ġlayers": 8760,
      "Ġbank": 8761,
      "ä¸ĭçļĦ": 8762,
      "Ġcoordin": 8763,
      "ĠIts": 8764,
      "å°¼äºļ": 8765,
      "ĠFind": 8766,
      "Ġviews": 8767,
      "Ġpolicies": 8768,
      "amily": 8769,
      "nam": 8770,
      "çļĦæĥħ": 8771,
      "å¤ĸäº¤": 8772,
      "height": 8773,
      "Ġhit": 8774,
      "ROM": 8775,
      "Ġefficiency": 8776,
      "Ġtips": 8777,
      "Ġfu": 8778,
      "Ġmes": 8779,
      "Ġfoss": 8780,
      "Ġflood": 8781,
      "ĠWestern": 8782,
      "inf": 8783,
      "æľīçļĦ": 8784,
      "èĬ¬": 8785,
      "tra": 8786,
      "çĶ³": 8787,
      "IR": 8788,
      "Ġstars": 8789,
      "encoding": 8790,
      "ĠLearning": 8791,
      "element": 8792,
      "å¤§éĥ¨åĪĨ": 8793,
      "éĵ¾æİ¥": 8794,
      "è®©": 8795,
      "å¢ĵ": 8796,
      "ĠPri": 8797,
      "Ġarm": 8798,
      "bro": 8799,
      "ĠExpl": 8800,
      "aa": 8801,
      "ĠTem": 8802,
      "----------------------------------------------------------------": 8803,
      "èĩ¨": 8804,
      "å¼Ģåıĳ": 8805,
      "éģĭåĭķåĵ¡": 8806,
      "äº¿": 8807,
      "ĠasÃŃ": 8808,
      "Ġconcepts": 8809,
      "Integer": 8810,
      "Item": 8811,
      "van": 8812,
      "ĠTex": 8813,
      "è¾Ľ": 8814,
      "éĢ²åħ¥": 8815,
      "Ġprofessor": 8816,
      "Ġcovered": 8817,
      "ĠEgypt": 8818,
      "Ġconservation": 8819,
      "ç©¿": 8820,
      "Ġminor": 8821,
      "Ġbelong": 8822,
      "yes": 8823,
      "Ġlegisl": 8824,
      "acement": 8825,
      "åĮĸåŃ¦": 8826,
      "forms": 8827,
      "render": 8828,
      "è¿Ľåħ¥": 8829,
      "Ġagre": 8830,
      "ĠConn": 8831,
      "td": 8832,
      "æ±ºå®ļ": 8833,
      "Ġinjury": 8834,
      "El": 8835,
      "ĠOb": 8836,
      "Ġanyone": 8837,
      "Ġfacts": 8838,
      "åľĺé«Ķ": 8839,
      "ä¸Ģèµ·": 8840,
      "åįķä½į": 8841,
      "ĠLog": 8842,
      "Ġphilos": 8843,
      "=%": 8844,
      "Ġreverse": 8845,
      "ĠFebruary": 8846,
      "And": 8847,
      "ä¹ĥ": 8848,
      "lambda": 8849,
      "ernel": 8850,
      "Ġinstalled": 8851,
      "Ġtres": 8852,
      "Ġhorm": 8853,
      "Ġrect": 8854,
      "ka": 8855,
      "Ġyellow": 8856,
      "ĠpolÃŃ": 8857,
      "Ġlandsc": 8858,
      "Gener": 8859,
      "ä½ł": 8860,
      "è¡¡": 8861,
      "åĩºçļĦ": 8862,
      "Ġparticles": 8863,
      "Ġstack": 8864,
      "Ġdocuments": 8865,
      "ienen": 8866,
      "Ġaren": 8867,
      "Ġminimum": 8868,
      "Ġsubprocess": 8869,
      "é®®": 8870,
      "åįļçī©": 8871,
      "Ġfill": 8872,
      "Ġox": 8873,
      "Ġspot": 8874,
      "ying": 8875,
      "Ġpobl": 8876,
      "Ġmort": 8877,
      "Ġobserved": 8878,
      "ĠCD": 8879,
      "åİŁåĽł": 8880,
      "ĠespaÃ±ol": 8881,
      "Ġrein": 8882,
      "çī¹åĪ¥": 8883,
      "unately": 8884,
      "ĠMont": 8885,
      "exceptions": 8886,
      "Equals": 8887,
      "Ph": 8888,
      "Ġexpert": 8889,
      "Ġcollege": 8890,
      "entes": 8891,
      "ĠUSA": 8892,
      "ĠOff": 8893,
      "Ġtimeout": 8894,
      "Ġdecor": 8895,
      "æ»ħ": 8896,
      "Ġip": 8897,
      "çļĦä¸»è¦ģ": 8898,
      "Ġdepends": 8899,
      "Ġdebug": 8900,
      "istribution": 8901,
      "/%": 8902,
      "inx": 8903,
      "èĪ°": 8904,
      "ĠProfess": 8905,
      "Fore": 8906,
      "Ġgri": 8907,
      "eph": 8908,
      "rup": 8909,
      "ĠMem": 8910,
      "ä¸Ģæ¬¡": 8911,
      "Ġdepth": 8912,
      "ĠÎ": 8913,
      "Ġvisible": 8914,
      "Ġinterested": 8915,
      "åŃ¦çĶŁ": 8916,
      "Ġsustainable": 8917,
      "istas": 8918,
      "èīºæľ¯": 8919,
      "Ġreact": 8920,
      "ithub": 8921,
      "lan": 8922,
      "Ġcort": 8923,
      "ĠdespuÃ©s": 8924,
      "Ġpaths": 8925,
      "ĠBra": 8926,
      "åĬ³": 8927,
      "çĤ®": 8928,
      "Ġreality": 8929,
      "Ġmatrix": 8930,
      "ĠtÃ©rmin": 8931,
      "Ġneuro": 8932,
      "ĠBuild": 8933,
      "ĠRobert": 8934,
      "iled": 8935,
      "Ġpresented": 8936,
      "ĠRo": 8937,
      "space": 8938,
      "ĠJewish": 8939,
      "Ġtouch": 8940,
      "åı°åĮĹ": 8941,
      "Ġgender": 8942,
      "urance": 8943,
      "ĠElect": 8944,
      "ç§ĳæĬĢ": 8945,
      "Ġwonder": 8946,
      "Ġchemicals": 8947,
      "display": 8948,
      "uate": 8949,
      "changed": 8950,
      "ĠGal": 8951,
      "è£Ĥ": 8952,
      "Ġcart": 8953,
      "Ġmedi": 8954,
      "lat": 8955,
      "Ġsurgery": 8956,
      "äºĤ": 8957,
      "éĺ»": 8958,
      "è½Ħ": 8959,
      "Ãºs": 8960,
      "Ġstarts": 8961,
      "ĠEnt": 8962,
      "ä¸¦ä¸Ķ": 8963,
      "FO": 8964,
      "Ġdisable": 8965,
      "ĠCommon": 8966,
      "Ġparticipants": 8967,
      "riculum": 8968,
      "Ġvulner": 8969,
      "ĠCa": 8970,
      "ndrome": 8971,
      "Ġroll": 8972,
      "Ġfundamental": 8973,
      "You": 8974,
      "Ġforeign": 8975,
      "ISE": 8976,
      "Ġwarnings": 8977,
      "è£½ä½ľ": 8978,
      "Ġpars": 8979,
      "Ġextension": 8980,
      "ĠĠĠĠĠĠĠĠĠĠĠĠĠĠĠĠĠĠĠĠĠĠĠĠĠĠĠĠĠ": 8981,
      "âĢĿï¼Ī": 8982,
      "ä¸īå¹´": 8983,
      "æľºæŀĦ": 8984,
      "ä»¥ä¸Ĭ": 8985,
      "Ġmeat": 8986,
      "ĠIsland": 8987,
      "mac": 8988,
      "ĠLu": 8989,
      "Ġpeace": 8990,
      "åīįå¾Ģ": 8991,
      "timeout": 8992,
      "ä¹¦è®°": 8993,
      "Input": 8994,
      "åķŁ": 8995,
      "Ġclinical": 8996,
      "uri": 8997,
      "GB": 8998,
      "Ġcos": 8999,
      "ä»Ļ": 9000,
      "åŃĹæ¯į": 9001,
      "second": 9002,
      "Ġdiscovery": 9003,
      "Ġpreviously": 9004,
      "ĠVis": 9005,
      "Ġexposed": 9006,
      "SO": 9007,
      "Ġpermit": 9008,
      "äº®": 9009,
      "ĠLike": 9010,
      "']['": 9011,
      "chedul": 9012,
      "ä½µ": 9013,
      "Ġtrop": 9014,
      "Ġsupports": 9015,
      "rains": 9016,
      "ĠPaul": 9017,
      "Ġplaying": 9018,
      "Result": 9019,
      "enerp": 9020,
      "ophy": 9021,
      "Ġnumerous": 9022,
      "æłĩåĩĨ": 9023,
      "chers": 9024,
      "éļĶ": 9025,
      "Ġvent": 9026,
      "ainer": 9027,
      "axis": 9028,
      "æ¸ħæľĿ": 9029,
      "Ġorg": 9030,
      "Ġcoal": 9031,
      "åĪ©äºļ": 9032,
      "ĠIMPL": 9033,
      "Ġcarried": 9034,
      "Ġreprodu": 9035,
      "ä¸įéģİ": 9036,
      "Ġframework": 9037,
      "ç¢¼": 9038,
      "Ġpref": 9039,
      "ï¼ĮâĢľ": 9040,
      "å»ºè®¾": 9041,
      "æĻī": 9042,
      "æĺŃ": 9043,
      "ĠFol": 9044,
      "Ġhappy": 9045,
      "IED": 9046,
      "Inst": 9047,
      "Ġmotor": 9048,
      "Ġjobs": 9049,
      "Ġmas": 9050,
      "Ġtrip": 9051,
      "ĠIII": 9052,
      "ĠThomas": 9053,
      "æ®¿": 9054,
      "å¤ªå¹³": 9055,
      "From": 9056,
      "ello": 9057,
      "æĸ¹ç¨ĭ": 9058,
      "Ġopin": 9059,
      "èĭıèģĶ": 9060,
      "ĠInstead": 9061,
      "Ġå¤ĸéĥ¨éĢ£çµĲ": 9062,
      "Ġgrav": 9063,
      "ĠLibrary": 9064,
      "Ġisol": 9065,
      "æī©": 9066,
      "ä¸»æĮģ": 9067,
      "Ġfluid": 9068,
      "zz": 9069,
      "ç»Łæ²»": 9070,
      "Ġchicken": 9071,
      "ĠLou": 9072,
      "Ġhasattr": 9073,
      "Ġtras": 9074,
      "Ġcontribute": 9075,
      "Writ": 9076,
      "Bo": 9077,
      "ĠJSON": 9078,
      "ĠĠĠĠĠĠĠĠĠĠĠĠĠĠĠĠĠĠĠĠĠĠĠĠĠĠĠ": 9079,
      "hetic": 9080,
      "ientes": 9081,
      "RIG": 9082,
      "ĠCentral": 9083,
      "Ġparty": 9084,
      "Ġgrade": 9085,
      "éĢĻç¨®": 9086,
      "Ġgenes": 9087,
      "blank": 9088,
      "çĹħæ¯Ĵ": 9089,
      "Ġderived": 9090,
      "ĠSin": 9091,
      "å®ļç¾©": 9092,
      "iest": 9093,
      "Ġped": 9094,
      "åĽ½åĬ¡": 9095,
      "Ġchart": 9096,
      "åľĭç«ĭ": 9097,
      "dule": 9098,
      "Ġcompat": 9099,
      "Ġphone": 9100,
      "ç»ĦæĪĲ": 9101,
      "é»ĺ": 9102,
      "Ġcada": 9103,
      "Ġquantum": 9104,
      "ĠDist": 9105,
      "æĽĨ": 9106,
      "èĳĹä½ľ": 9107,
      "ĠHIV": 9108,
      "ĠUnivers": 9109,
      "itz": 9110,
      "Ġç¬¬": 9111,
      "itial": 9112,
      "Ġprinciples": 9113,
      "ografÃŃa": 9114,
      "ç¾½": 9115,
      "éľ²": 9116,
      "ky": 9117,
      "ĠCast": 9118,
      "âĢĿãĢģ": 9119,
      "Ġfine": 9120,
      "Ġdetailed": 9121,
      "othing": 9122,
      "ãĢī": 9123,
      "Ġvital": 9124,
      "å®ļä¹ī": 9125,
      "Ġhelping": 9126,
      "Ġhelped": 9127,
      "æ®Ĭ": 9128,
      "Ġenviron": 9129,
      "Ġhelpful": 9130,
      "pred": 9131,
      "Ġfro": 9132,
      "ĠPO": 9133,
      "Ġpun": 9134,
      "çĹĩ": 9135,
      "Ġecos": 9136,
      "atter": 9137,
      "Ġjour": 9138,
      "Ġwhom": 9139,
      "ç¨ĭåºı": 9140,
      "ĠOnly": 9141,
      "onia": 9142,
      "ãĢĪ": 9143,
      "ĠSecond": 9144,
      "è¼¸": 9145,
      "FL": 9146,
      "è²´": 9147,
      "Ġhousehold": 9148,
      "Ġliterature": 9149,
      "ĠSeg": 9150,
      "ĠSE": 9151,
      "ĠConfig": 9152,
      "ĠAut": 9153,
      "è¿ĩç¨ĭ": 9154,
      "Ġaccurate": 9155,
      "Ġtiempo": 9156,
      "ĠInformation": 9157,
      "CA": 9158,
      "emic": 9159,
      "ĠAuth": 9160,
      "Ġstrip": 9161,
      "Ġtags": 9162,
      "Ġnit": 9163,
      "Ġformula": 9164,
      "è¯·": 9165,
      "ĠVer": 9166,
      "Manager": 9167,
      "Ġlun": 9168,
      "anda": 9169,
      "allel": 9170,
      "Ġ[{": 9171,
      "acial": 9172,
      "éĢŁåº¦": 9173,
      "ĠRad": 9174,
      "å½©": 9175,
      "ĠSum": 9176,
      "Ġfort": 9177,
      "Ġzone": 9178,
      "asion": 9179,
      "Prop": 9180,
      "ificate": 9181,
      "åħ³äºİ": 9182,
      "Ġinfluen": 9183,
      "Ġmostly": 9184,
      "Ġwanted": 9185,
      "Ġreferred": 9186,
      "èµµ": 9187,
      "Ġlesson": 9188,
      "ĠThank": 9189,
      "ĠGreek": 9190,
      "Ġhospital": 9191,
      "Ġdetermined": 9192,
      "Ã¡nd": 9193,
      "Ġbrown": 9194,
      "Ġphysic": 9195,
      "Ġswitch": 9196,
      "ĠTechnology": 9197,
      "anz": 9198,
      "uts": 9199,
      "è§£æĶ¾": 9200,
      "èĩ³ä»Ĭ": 9201,
      "break": 9202,
      "Ġoct": 9203,
      "ĠAS": 9204,
      "ĠMount": 9205,
      "Ġvess": 9206,
      "æ¸Ľ": 9207,
      "æĸĩåŃ¸": 9208,
      ".'": 9209,
      "Ġcapabilities": 9210,
      "Ġbright": 9211,
      "och": 9212,
      "Ġturned": 9213,
      "TEST": 9214,
      "clean": 9215,
      "points": 9216,
      "left": 9217,
      "imary": 9218,
      "åĮĪ": 9219,
      "Ġlived": 9220,
      "ĠJer": 9221,
      "Ġpred": 9222,
      "çĨĻ": 9223,
      "Ġsorted": 9224,
      "æľĢå¤§çļĦ": 9225,
      "iveness": 9226,
      "raight": 9227,
      "oco": 9228,
      "Ġurllib": 9229,
      "asure": 9230,
      "Ġinteract": 9231,
      "Ġdrinking": 9232,
      "Ġsnow": 9233,
      "ĠDAMA": 9234,
      ")[": 9235,
      "ĠAuthor": 9236,
      "çĶµè§Ĩ": 9237,
      "rand": 9238,
      "zip": 9239,
      "Ġreaction": 9240,
      "Ġblog": 9241,
      "åĳĪ": 9242,
      "Server": 9243,
      "è¡°": 9244,
      "Ġstatic": 9245,
      "Ġ'_": 9246,
      "ressed": 9247,
      "Ġfollows": 9248,
      "Ġcollected": 9249,
      "Ġelectrical": 9250,
      "Ġindicate": 9251,
      "ĠRepublic": 9252,
      "dtype": 9253,
      "Ġserved": 9254,
      "vm": 9255,
      "isiÃ³n": 9256,
      "umes": 9257,
      "Ġreader": 9258,
      "site": 9259,
      "éĽ»åŃĲ": 9260,
      "ĠIMPLIED": 9261,
      "å¼Ĥ": 9262,
      "erno": 9263,
      "unicip": 9264,
      "Ġhaz": 9265,
      "ĠNetwork": 9266,
      "Ġ<=": 9267,
      "oved": 9268,
      "æ¶ī": 9269,
      "Point": 9270,
      "Sub": 9271,
      "å®¶åºŃ": 9272,
      "Ġoffset": 9273,
      "iki": 9274,
      "æļĹ": 9275,
      "Ġtruth": 9276,
      "éĽ¶": 9277,
      "Ġsell": 9278,
      "Ġaffects": 9279,
      "ĠMult": 9280,
      "å¥Ĺ": 9281,
      "Ġantigu": 9282,
      "åĬłæĭ¿å¤§": 9283,
      "æľįåĭĻ": 9284,
      "Ġleads": 9285,
      "Ġmist": 9286,
      "Ġ%(": 9287,
      "Ġinsert": 9288,
      "Ġdro": 9289,
      "ĠCanad": 9290,
      "è¶ĬåįĹ": 9291,
      "ĠIr": 9292,
      "Ġ|-": 9293,
      "loader": 9294,
      "Ġencourage": 9295,
      "ĠæĹ¥æľ¬": 9296,
      "è¿İ": 9297,
      "èİİ": 9298,
      "Ġdiscussion": 9299,
      "çµ±æ²»": 9300,
      "ĠMedical": 9301,
      "åĸ®ä½į": 9302,
      "Ġutils": 9303,
      "RECT": 9304,
      "Ġbond": 9305,
      "æľĢå¤§": 9306,
      "distance": 9307,
      "ĠTexas": 9308,
      "full": 9309,
      "éŃĶ": 9310,
      "pa": 9311,
      "enth": 9312,
      "onic": 9313,
      "çĽĳ": 9314,
      "Ġcomputing": 9315,
      "Ġprepared": 9316,
      ")\"": 9317,
      "Page": 9318,
      "ĠCivil": 9319,
      "Ã©ner": 9320,
      "Ġexplan": 9321,
      "Ġcombined": 9322,
      "æĹ§": 9323,
      "ä¸Ģå¹´": 9324,
      "Ġreduction": 9325,
      "æĿĲæĸĻ": 9326,
      "è±Ĳ": 9327,
      "Ġ\"/": 9328,
      "Ġvoice": 9329,
      "è»įäºĭ": 9330,
      "ĠLIMIT": 9331,
      "iable": 9332,
      "organ": 9333,
      "going": 9334,
      "éĥŃ": 9335,
      "å¥³åŃĲ": 9336,
      "rich": 9337,
      "Ġinches": 9338,
      "çĶ¨çļĦ": 9339,
      "Ġphenomen": 9340,
      "izaciÃ³n": 9341,
      "é¦ĸéĥ½": 9342,
      "å¯¹äºİ": 9343,
      "éĦŃ": 9344,
      "plugin": 9345,
      "UTH": 9346,
      "MB": 9347,
      "Ġproces": 9348,
      "addr": 9349,
      "Ġflowers": 9350,
      "Ġnorthern": 9351,
      "ĠBer": 9352,
      "Ġkill": 9353,
      "Ġcapability": 9354,
      "Ġpool": 9355,
      "abil": 9356,
      "oking": 9357,
      "ç¾İåħĥ": 9358,
      "å±ŀäºİ": 9359,
      "ĠDet": 9360,
      "Ġencuent": 9361,
      "Ġtrained": 9362,
      "Ġcontainer": 9363,
      "burg": 9364,
      "Ġéĺ¿": 9365,
      "urt": 9366,
      "è¡ĮæĺŁ": 9367,
      "åħ¬åħ±": 9368,
      "ponent": 9369,
      "Ġassessment": 9370,
      "èĩĺ": 9371,
      "....": 9372,
      "classes": 9373,
      "ä»įçĦ¶": 9374,
      "insert": 9375,
      "ä½ĽæķĻ": 9376,
      "Ġconcentr": 9377,
      "Ġskip": 9378,
      "With": 9379,
      "Ġstorm": 9380,
      "'},": 9381,
      "supervised": 9382,
      "package": 9383,
      "Ġexcell": 9384,
      "æĵģæľī": 9385,
      "Ġsituations": 9386,
      "Ġacademic": 9387,
      "æģĲ": 9388,
      "Ġspend": 9389,
      "Or": 9390,
      "Ġfamiliar": 9391,
      "Ġexperienced": 9392,
      "DP": 9393,
      "åŃ©": 9394,
      "Ġretri": 9395,
      "initial": 9396,
      "Ġbegins": 9397,
      "othe": 9398,
      "Ġprovider": 9399,
      "Us": 9400,
      "ga": 9401,
      "ĠJose": 9402,
      "div": 9403,
      "alle": 9404,
      "åĤ·": 9405,
      "çĸĳ": 9406,
      "Ġcorresponding": 9407,
      "ĠEngine": 9408,
      "Ġthick": 9409,
      "Ġestable": 9410,
      "åŁºç¡": 9411,
      "å¤ļçļĦ": 9412,
      "Ġprofession": 9413,
      "exc": 9414,
      "èĭ±æĸĩ": 9415,
      "äºķ": 9416,
      "Ġoccurred": 9417,
      "ĠEnergy": 9418,
      "-%": 9419,
      "wood": 9420,
      "Ġple": 9421,
      "Ġrender": 9422,
      "æłĳ": 9423,
      "å±¬æĸ¼": 9424,
      "ummy": 9425,
      "try": 9426,
      "é¨": 9427,
      "ĠBUT": 9428,
      "standing": 9429,
      "(['": 9430,
      "ä»°": 9431,
      "Ġfruits": 9432,
      "é§Ĳ": 9433,
      "Ġbow": 9434,
      "ĠAngeles": 9435,
      "ifications": 9436,
      "åŁºç¡Ģ": 9437,
      "ĠOld": 9438,
      "ä¸»ä»»": 9439,
      "Ġsubs": 9440,
      "æģ¢": 9441,
      "ACK": 9442,
      "akers": 9443,
      "Ġvaccine": 9444,
      "è¹": 9445,
      "Ġale": 9446,
[...]
